ffe4
ffea
fff6
ffd0
0043
ffd6
fff1
0004
004f
ffc8
0050
001a
0027
ffb6
ffc2
ffe2
0040
005a
0057
0048
0017
0042
0048
0046
ffbd
ffde
0014
ffb1
ffcc
fff1
ffee
0000
ffdd
ffd3
000d
000f
ffbd
ffbc
ffe6
fffa
0000
002c
ffdf
ffff
fffb
0007
0005
ffed
0014
fff8
ffdc
fff9
ffec
ffdd
ffea
0006
001b
000c
0025
0025
000c
ffde
000f
ffd5
fff9
ffff
0036
fffb
0009
0017
ffeb
002b
0011
fffb
000a
fff4
0036
000b
0038
ffe9
0023
001a
0005
0013
fffd
0000
0025
ffe0
ffde
ffe6
0009
fff4
ffee
0000
0029
ffdf
0028
0021
ffe0
0023
0015
0028
fff5
ffdb
0025
0001
fff7
0006
ffed
000a
ffdb
fff9
0018
0015
0006
0011
ffed
0026
000d
ffe4
001d
fff9
fff1
0024
fffa
0018
0021
fffa
000e
0026
fff4
001a
fffa
002d
ffe3
0030
0017
0024
fff5
001f
002e
0000
0018
001a
0013
ffe1
0001
0019
ffec
002e
0019
0032
0034
0015
0015
ffec
0013
ffd7
ffee
0015
ffd8
ffda
fffa
000e
0021
000a
ffec
0025
000e
000e
ffdd
fffb
fffe
ffe3
fffe
0032
0026
0028
001d
001f
0020
0004
0021
0021
0022
0029
000c
fff7
002a
ffeb
0015
0034
ffe4
ffef
ffed
0008
ffde
ffff
002a
001b
ffeb
0015
ffe6
001f
fff8
001a
001f
002c
fffb
0017
0010
0018
0015
0008
002a
fff1
000e
ffe3
fffb
0012
001c
fff2
0021
000a
0013
fffa
fff3
0007
000c
ffde
000b
ffd5
fff0
fff8
ffd7
ffea
0017
ffeb
0010
fff1
ffce
fff8
001f
ffd0
0001
0014
0001
0002
fff8
000a
0034
000e
001e
002f
fff5
0039
000b
fff5
0006
001c
000b
0021
002c
0033
0030
0025
fffa
0002
000d
000b
0000
fff2
0011
002f
ffe2
ffe2
0025
ffe9
0013
ffee
0026
002e
ffdd
001f
0017
fffa
ffef
000f
0009
002e
0017
0011
fff9
fffb
0005
000a
0031
000f
0010
0033
0003
ffe8
ffee
0025
fff6
0003
002d
002d
ffec
0001
0021
0001
0002
ffef
000d
fffd
002d
002f
0012
0026
001e
fff7
001a
0022
0010
ffdd
fffd
ffea
0026
0030
000e
ffee
0004
0020
0027
fffd
fffe
fff7
fffd
fffb
0000
0003
fffe
fffe
0001
0004
fffe
0002
0000
0001
ffff
fffd
fffa
ffff
0002
fffb
fffc
0007
0002
fffd
0000
0000
0000
fff9
0001
0000
000e
000d
0004
0004
0001
ffff
fffd
ffff
0000
0000
fffc
ffff
fffd
0000
0003
fffd
fffd
ffff
0000
fffc
0000
fffb
fffc
0000
0003
0003
fffe
fffc
fffb
fff9
0001
fffb
0006
0001
0001
0000
0000
ffff
fffe
fffa
ffff
0000
fffc
0002
fffa
0003
ffff
fffa
fffe
0000
0001
fffc
fff9
fffb
fffa
fffd
0002
fffa
0002
fff9
0001
fffb
0002
0000
ffff
0002
0000
fffd
0004
0000
fffe
0001
ffff
0002
0001
0000
fffb
0000
ffff
fffa
0000
fffb
0001
0000
fffe
ffff
0001
0002
fffd
0000
0000
fffd
0004
fffb
fffc
fffe
fff9
0003
fffd
ffff
ffff
fffc
ffff
fffd
0000
0003
0000
ffff
fffd
0003
0000
0003
fffc
fffc
fffc
0001
0004
ffff
0000
ffff
fffe
0002
fffb
0000
fffe
0002
0002
fffd
fffd
0000
fffe
0000
fffb
0003
fffd
fffa
0001
0000
0001
fffb
0000
fffa
fffc
0000
0000
0002
0002
0000
ffff
0001
0000
0001
fffe
0002
fffe
0000
ffff
fffd
0005
0002
0000
ffff
fffa
fffb
fffc
fffb
fffa
ffff
ffff
fffd
0003
ffff
fffc
0000
0001
fffe
fffa
0003
0003
fffa
0002
ffff
fff9
fffb
0002
0003
ffff
0001
fffb
fffc
0002
fffb
0000
0004
fffb
fffa
ffff
fffa
0000
0002
0000
fffe
fff9
fffe
0003
0001
0001
0005
0000
0001
fffd
fffd
fff9
fffd
0003
0003
fffa
0003
0000
0000
0002
fffe
fffe
ffff
fffb
fffd
0001
ffff
0000
0000
fffa
fffa
fffa
0000
0000
0000
fffd
fffd
0001
fffc
fffe
0004
fff9
fffd
fffb
0000
ffff
0001
ffff
0001
fffc
0002
0001
fffc
fff9
fffa
0000
fffa
fffe
fffc
ffff
fffb
0000
fffc
0000
fffc
fffe
0003
fffd
0001
fffe
fffd
0000
0002
0000
0002
ffff
fffc
fffe
fffd
0000
fffd
0004
0000
0002
0002
0002
0002
0004
0000
fffe
ffff
fffe
fffc
0001
fffc
0000
fffb
0002
ffff
0001
fffc
fffc
fffe
0004
0003
0003
fffd
fffe
fffb
0002
0000
0004
ffff
ffff
0002
fffb
0002
0000
fffb
0002
fffc
0002
fffe
0003
fffc
0004
fffe
0000
0001
0003
fffd
fffd
ffff
0000
0002
fffe
0000
fffe
ffff
0000
fffa
ffff
ffff
fffd
fffe
0001
fffe
fffc
0004
0000
fffc
0002
0000
fffe
ffff
0002
0003
0003
fffd
fffe
0001
fffb
fffe
0004
fffe
fffe
0003
0000
fffa
0002
0003
fffc
fffa
0000
fffb
0001
fffc
ffff
fffa
fffb
0000
ffff
ffff
0004
fffd
0000
fffc
0003
0001
fffb
fffd
0003
0003
0000
fffe
0002
0002
0000
fffa
0003
fffa
fffc
fff9
0000
0000
fffb
fffb
0004
0000
0000
fffc
0002
fffa
0002
0001
fffe
ffff
fffc
fffe
ffff
fffd
0001
0002
0000
0003
fffe
0000
0005
fffc
0003
fffe
fffc
0000
0000
0003
fffd
0002
fffa
0002
0003
fffc
0003
fffe
fffc
ffff
fffd
fffc
fffb
ffff
0003
0003
fffa
0000
ffff
0001
fffb
fffd
fff9
fffd
0000
ffff
0000
0000
0002
fffc
fffc
fffd
ffff
fffb
0002
0000
fffb
fffa
fffa
ffff
0003
0000
0004
0000
0003
fffb
0000
fffe
0001
fffc
fffc
fffe
ffff
ffff
0001
fffa
0002
0003
0000
fffa
0000
0000
0000
fffa
fffd
0000
0000
fffa
fffa
fffe
fff9
fffe
fffb
fffc
ffff
0000
0000
fffc
0003
0000
fffc
0001
ffff
0001
0000
0001
fffc
0000
fffb
fffd
0002
0001
fffb
ffff
0002
fffc
0003
fffd
0002
0000
fffd
fffe
0000
0000
fffb
fffe
ffff
fffb
0001
0001
fffd
fffe
fffc
0001
ffff
0003
fffd
fffb
fffe
0003
0001
fff9
0003
0001
fffa
fffa
0005
0004
0002
0004
0000
0002
fffd
0001
0006
fffc
0002
0001
0002
fffd
0003
fffa
fffd
0004
ffff
0003
fffb
fffe
fffd
0005
fffd
0004
0002
ffff
0001
fffb
ffff
fffe
0000
ffff
fffe
0000
fffb
0002
ffff
0000
0002
0007
0005
fffb
0000
fffa
0003
0000
fffb
0000
fffd
0000
0000
0002
0003
0001
fffd
0003
fffd
fff9
0001
0001
fffd
0001
fffe
0000
0004
0000
0000
0002
0001
fffa
0002
0002
0002
fffa
ffff
0001
0003
fffd
0003
0003
0004
fffe
0004
fffd
0005
0002
0005
0004
fffe
0002
0001
fffa
0000
ffff
fffc
0000
0000
0000
0000
fffc
0003
fffd
0003
0007
0005
0005
fffe
0003
fffd
0000
fffd
0000
fffe
0004
fffd
0000
0002
fffd
ffff
0000
fffe
0001
0004
0001
fffe
0003
0001
ffff
fffd
fffb
0004
0003
fffc
0001
0003
0002
fffe
0000
0007
0003
fffa
ffff
0003
0001
0000
0001
0003
fff9
fffd
0003
fffb
fffe
0005
0004
fffe
0000
0003
0001
fffc
fffd
0004
0000
0000
fffb
0002
fffb
ffff
0005
0002
0002
fffc
0000
0003
fffb
0002
fffe
0000
0000
0003
0003
0002
ffff
0001
0000
0005
0001
fffd
fffb
fffc
ffff
0005
ffff
ffff
0004
fffb
ffff
0000
0002
ffff
0002
fffb
0003
ffff
0004
0002
fffd
fffc
fffa
fffe
0000
fffc
0001
fffc
0000
fffa
0003
fffb
0000
0001
0001
0003
0002
fffe
fff9
fffe
fffb
fff9
0000
0000
fffe
0002
0005
0000
ffff
0002
ffff
fffe
fffa
fff9
0003
0001
fffd
0002
0001
0003
0001
fffd
ffff
0004
0007
0005
fffa
0002
fffb
0001
0001
fffe
fffa
fffc
0000
fff9
0000
0003
0003
fffe
0005
fffb
0003
0001
0000
ffff
0000
fff9
0000
fff9
0000
0000
0000
fffc
fffe
ffff
fffd
fffc
fffc
fffb
fffd
fff9
fffc
fffe
fffe
0001
0003
0000
fffd
0001
0005
0004
0004
fffe
fffb
fffe
fff9
fffd
0003
fffc
fffb
fffd
0001
0000
0003
0004
0002
fffd
fffe
ffff
fffe
ffff
fffe
0001
fffc
0000
fffc
fffc
fffc
fffa
fffb
ffff
0005
0004
0002
0004
fffb
ffff
fffb
fffc
fffd
0000
0000
0001
0003
fffd
0002
0002
0003
0002
fffc
0001
0000
0000
fffe
fffb
ffff
fffe
fffa
ffff
fffe
0001
0000
fffb
0005
0000
0000
ffff
fffc
0002
0000
fffa
0001
0002
fffc
fffe
fffb
0000
0000
0000
0002
0001
0006
ffff
fffa
0000
fffd
0000
fffe
ffff
0000
0000
0002
0003
fffc
fffe
0005
0003
0002
0001
0000
fffd
0003
0002
fffe
fffe
fffa
fffd
fffb
fffe
fffd
fffa
ffff
fffe
0004
0003
ffff
0000
fffe
0001
fffd
0000
0002
0003
fffb
0001
0000
fffe
0000
0002
fffd
0005
fffa
fffa
ffff
0000
ffff
fffa
fffb
fffa
0001
fffc
fffe
fffc
fffd
0000
0000
fffb
0001
0000
fffc
ffff
0001
ffff
fffa
ffff
0001
0004
0001
0001
fffe
fffa
fffb
fffb
ffff
0002
fffe
0001
0005
0000
fffd
fffd
0005
fffe
fffc
0002
0000
fffb
fffa
fffd
ffff
fffd
0002
fffc
0003
0000
0000
ffff
0003
0004
fffb
0003
0002
fffc
fffc
ffff
0003
fffe
0005
0000
0000
ffff
fffc
0000
0004
fffe
fffe
fffc
fffc
ffff
fffa
fffc
fffa
fffd
0001
fffb
0002
0004
0004
fffd
0003
0005
0007
ffff
0003
fffa
fffe
0000
fffe
0000
0003
0004
0004
fffc
fffd
0002
0000
0001
ffff
0002
fffc
0001
fffe
0000
fffb
fffc
0001
0003
ffff
fffb
fffd
fffe
0001
0003
0000
fffc
ffff
ffff
0000
0005
fffe
0001
0001
0000
0000
fffc
0002
0000
fffe
0001
fffc
0001
fffd
0005
0000
fffb
fffe
fffd
fffd
0004
ffff
0000
0005
0001
0000
fffa
fffc
fff9
0000
fff9
0000
0000
0000
0003
0001
ffff
0002
0001
fffd
0004
ffff
fffe
fffd
ffff
0000
0000
ffff
0000
0005
fffe
fffc
fffb
fffb
0005
0004
0001
fffc
0000
0000
0000
fffc
0002
ffff
0005
fffe
0004
0004
0003
0000
0001
0004
0004
fffc
0000
0000
0005
fffc
0001
0001
0005
fffd
0000
0005
0000
0003
0000
ffff
0000
0002
fffe
ffff
0001
fffb
0005
0002
0007
fffd
fffe
ffff
0004
0004
0000
0004
0000
0003
0000
fffa
fffd
fffa
ffff
0000
0004
fffb
fffe
fffc
0001
0004
0004
0005
0003
0003
0004
fffb
0005
0003
0001
0003
fffe
0001
0003
0000
0002
0003
fffe
0002
0001
0002
0003
0000
fffd
ffff
0005
fffc
0003
fffd
0005
fffd
0005
fffe
fffe
ffff
0000
0002
0000
0001
ffff
fffe
0003
fffc
fffd
0000
0000
0001
ffff
0000
0002
0000
fffe
0000
fffc
0001
fffc
fffc
fffa
0004
0000
ffff
0000
fffd
ffff
0002
fffe
fffc
0002
0001
fffa
fffd
0001
0003
0003
0000
0004
0001
ffff
ffff
0000
fffc
fffc
fffd
0000
0003
0002
fffd
0000
0000
fffc
0004
0005
0006
0000
fffb
fffe
fffa
fffe
0001
0000
0000
fffb
0000
fff9
0000
0004
0001
0000
ffff
0004
0003
ffff
fffd
fff9
0001
fffc
fffd
0000
fffc
0000
0000
0001
0002
fffe
fffe
fffb
fffe
fff9
0002
fffa
fffe
0001
0000
0000
0000
fffc
0002
fffe
ffff
0000
0000
0002
0001
0002
fffd
ffff
fffc
fffa
0000
fffa
fffe
0002
fffd
0000
fffc
0004
0000
fffe
ffff
fffb
0002
fffa
fffa
fffa
fffc
fffa
fffc
0002
fffc
fffc
0001
fffc
0000
0004
fffa
ffff
0000
fffc
0002
fffe
fffd
fffb
0000
fffd
fffb
0004
0005
0007
0003
0000
fffc
0000
0001
0000
fffc
fffd
fffd
0002
0001
0000
0002
fffe
0001
fffd
0003
ffff
fffc
fff9
0001
fffb
0001
fffe
0000
0001
fffb
0003
fffc
ffff
fffe
0003
0006
fffd
fffa
fffb
0001
0000
fffe
ffff
fffb
fff9
fff9
0002
ffff
0001
0001
0006
0005
fffb
fffc
fff9
0002
0002
fffd
fffc
fffa
fffc
fffd
fffa
fffe
0002
fffd
0000
fffd
fffe
fffe
fffc
fff9
ffff
fffc
fff9
fffd
fffa
0000
fffa
fffd
fffc
fffa
ffff
ffff
fffa
0002
0002
fffa
fff9
fffc
fffa
fffb
fffe
fffa
fffc
fffd
0001
fffa
fffa
0002
fffc
fffc
0001
fffd
fffd
0001
0001
0002
fffd
0002
ffff
ffff
fff9
0001
fffe
fffc
0003
0000
0000
0001
fffa
0001
0000
0000
0004
fffb
fffc
0000
0000
fff9
ffff
fffc
fffd
fffa
0001
fffe
fffb
0003
0002
0001
ffff
0000
ffff
0003
fffe
fff9
0000
fff9
0000
0000
0004
fffc
fffd
0004
0006
fffd
0005
0000
ffff
0003
fffe
fffb
0000
fffd
fffe
fffa
0000
fffd
fffe
fffc
0002
0002
ffff
0001
0001
fffc
fffa
fffd
0000
0001
0000
0000
fffd
ffff
fffb
0002
0003
0002
0004
0001
ffff
0003
fffc
ffff
0003
fffa
fffa
0001
0001
0000
fffe
fffa
fffd
0002
0007
0000
ffff
0000
fffc
fffa
0000
0000
0002
fffe
0001
0000
fffe
0000
fffc
fffd
0000
0004
0004
ffff
0001
0000
fffb
fffc
fff9
fffa
fff9
ffff
0001
0001
fffa
fffd
fffd
fffe
0003
0003
fffd
fffb
0002
0000
0000
0001
fffa
ffff
fffc
fff9
0002
fffb
0002
0004
0001
0003
0000
fffc
fffc
fffb
0000
0002
fffb
0002
0001
ffff
0001
fffb
0003
fff9
0007
0000
0003
fffb
0003
0000
fffe
fffa
0000
fffc
0000
0000
fffc
0003
fffd
0004
0002
fffe
0003
fffe
fffd
fffc
fff9
fff9
fffe
fffd
0000
fffc
fffd
0000
ffff
0003
fffe
0001
0000
0002
0004
0000
fffc
fffd
0003
fffb
fffd
fffb
0002
ffff
0002
0000
0003
0006
0002
ffff
fffb
0000
0001
fffc
0000
0000
ffff
fffc
fff9
0001
fffd
fffd
0000
fffc
fffc
fffc
0001
fffc
fffd
0000
fffd
fffc
fff9
0000
0000
0001
fffe
fffe
fffc
0003
0000
0003
fffd
fffa
0003
fffa
0000
0003
fffb
fffe
fffb
0000
fffe
ffff
fffa
0004
0006
fffe
fffd
0002
0000
fffa
fffe
0002
fffd
0000
fffc
fffe
0004
0000
fffc
0000
0002
0005
fffe
fffe
0000
0003
fffd
fffd
0000
0004
fffe
fffb
0000
fffb
0003
0004
0000
fffd
fffb
0002
fffb
0000
fffe
0001
fffc
0004
0000
0002
0002
fffc
0002
fffc
0000
ffff
fffa
fffb
0001
ffff
0004
0001
0000
0003
0000
fffc
0004
0001
0006
ffff
fffc
0004
0003
0001
0000
fffb
0003
0003
0003
0002
ffff
fffb
0002
0000
0001
0002
0000
fffb
fffe
0005
0001
fffe
0005
0004
fffc
0002
0003
0005
0000
0002
0003
fffd
0004
fffc
fffc
0005
fffe
fffc
0000
fffd
0000
0002
0004
0002
fffc
ffff
fffd
0004
0003
0007
fffc
0000
fffc
0004
ffff
fffc
fffc
0001
0002
fff9
fffb
0001
0002
fffa
fffb
0000
0000
0003
0001
0002
0003
0000
0003
0002
0004
0004
ffff
0002
0002
fffe
0004
0005
0000
0005
0000
fffd
0003
fffe
0003
fffe
0000
0001
0004
fffc
0003
fffc
0000
fffc
fffd
0000
0000
fffb
0001
0002
0000
0002
0005
0004
ffff
0003
0003
0004
0005
fffe
fffc
fffe
fffe
0002
ffff
0001
0003
ffff
0005
0001
0001
0004
0003
0000
0001
0005
0004
fffd
0001
0000
ffff
0003
0004
0002
0002
0004
fffa
ffff
0002
0003
0003
ffff
fffb
0001
0002
0000
ffff
fffe
0000
fffe
0001
fffc
fffc
0000
fffc
0000
fffd
fffd
fffc
fffb
0000
fffd
0005
fffe
0003
0003
ffff
fffc
0004
0000
0005
fffe
fffe
fffc
ffff
ffff
fffd
0001
ffff
0000
0003
0005
0001
0000
fffb
0002
0000
0004
0005
0001
fffd
0004
0003
fffe
fffb
fffa
fff9
fff9
0000
000a
0003
0007
0003
000a
0007
0007
0000
0003
0005
0000
fff4
fff7
fffc
0001
000b
000a
0006
0000
0000
ffff
0002
fffc
0003
fffb
0007
0005
fffe
ffff
fff8
0003
0008
0006
000a
0007
0000
0001
0003
0003
0000
ffff
ffff
0007
fff8
0001
ffff
ffff
0007
000e
000a
0008
0005
000a
0005
0005
fffb
0005
0000
0008
0002
fffc
fffd
0005
0007
000f
000e
0006
000b
0003
0004
0000
fffe
0000
0008
0009
0003
0000
fffe
0007
0008
0007
0006
0005
0008
0007
0001
ffff
0001
fffe
0009
0008
0005
fffd
fffc
0007
0008
0011
000a
000d
0006
0007
0002
0002
0000
fffe
0007
0002
0002
0002
0005
000a
000b
000c
0008
000e
0005
0000
0000
0000
ffff
0005
0000
000b
fffd
0004
ffff
0006
000e
0008
000e
0010
000c
0005
0003
0000
ffff
0001
0004
0008
0004
0000
0009
0005
000f
0007
000a
000a
000a
0008
0001
fffa
0000
0003
0009
0004
0006
0000
0002
000b
0006
0005
0006
000f
0005
0006
fffe
0001
0001
fffc
0007
0003
0008
0008
0009
0007
0002
0009
0007
0010
0010
0004
fffe
0002
fffc
0004
0004
0005
ffff
0005
0005
0007
0005
000d
0004
0003
000a
0002
0002
fffd
fffb
fffd
0001
0009
0002
0008
0001
fffe
0008
000b
0006
000c
000b
0003
0000
0003
0000
0004
0000
0000
fffd
0005
ffff
fffd
0000
0003
0009
000b
0003
0003
0004
0002
fffd
ffff
0005
0005
0004
0005
fffc
0002
0000
0009
0004
0004
ffff
0000
0002
ffff
0003
0004
0002
fffe
ffff
fff7
fffb
0000
fff9
fffd
fffc
fff8
fff7
0000
0000
fff8
fffc
fff8
fffd
fffc
fff6
fffc
0000
fffb
0002
fffa
fff9
fffc
fff8
fffe
fffd
fff8
fffd
fffb
fffe
fffc
0000
fffe
ffff
fff8
fff8
fff9
fffe
0000
fffa
fffc
0000
0000
0000
fffe
0000
fffc
0000
0000
fffd
fffa
0000
0002
fffa
fff8
fff8
fffe
ffff
fff9
fffd
fffe
0000
0003
fffa
ffff
fffa
fff8
fff9
fffa
0001
0000
fffc
ffff
0000
fffd
fffb
fffa
0000
0000
ffff
fffd
fffa
fffb
0002
0000
0000
fff9
fff9
fff8
0001
fffd
fffe
fffe
fffb
0000
0000
0000
ffff
fffc
0004
0002
fffd
0004
0004
fffa
0000
fff8
fffc
fffd
0002
ffff
0001
0000
fff8
0001
0006
fffc
0004
0007
0007
0006
0000
0000
fff9
0000
0001
fffd
fffc
fffd
fffd
fffa
0002
0000
fffa
0000
fffa
fffb
0000
fffe
ffff
ffff
0000
ffff
fffc
0000
fffe
0000
0005
fffc
ffff
0004
0003
fffb
fff9
fffc
0000
fffb
0003
0002
fffe
fffb
0001
0000
fffb
0002
0002
fffe
0003
fffe
ffff
0001
ffff
fffe
fffd
0002
fffb
fffe
fffe
fffe
ffff
0004
0002
fffb
fffd
0000
fffa
fffa
ffff
0001
fffa
fffe
0000
fff8
fffe
fffd
fff9
0003
ffff
fffe
0000
0005
fffe
fffd
fffe
fffe
fffc
0001
0000
fffb
fffa
fffe
fff9
0003
fffc
0002
fffc
0004
fffc
0004
fffe
fffc
fffc
0004
fff9
0000
fff8
fffc
fffa
fff9
fffd
fffc
fffe
ffff
0000
0002
0001
0003
ffff
0000
fffd
0000
0002
ffff
fff9
fffe
0000
fffe
fffd
fffd
0000
0003
fffd
fffb
fffb
0000
fffc
fff5
fffc
0000
0008
0004
000d
000d
000c
0003
0006
0002
0008
0007
0002
0004
fff7
fffb
fffd
0001
fffd
0004
0006
000b
000d
000c
0008
0002
0008
0002
0007
0007
fff7
fffe
fffe
fffb
0004
ffff
0006
0006
0008
0004
ffff
ffff
0006
0008
0003
0000
fff6
ffff
0005
fffc
0000
0003
fffc
ffff
0006
0008
0000
0007
0008
0007
0006
0007
ffff
0004
0006
0000
0001
0006
ffff
fffd
fffe
0000
0003
ffff
0000
0001
0004
0000
ffff
0001
0007
000a
0009
0007
fff9
fffd
fffc
fffe
0006
0001
0008
0000
0005
0001
0005
0000
0000
000b
0008
000d
0004
0000
0000
0000
ffff
0000
fffe
0001
0006
fffe
0000
0000
0009
000d
0007
000c
0003
000a
0002
0002
0003
0000
fffc
0001
fffe
0000
0001
0001
0008
000c
0009
000a
0007
0009
fffe
fffd
0001
0000
0000
ffff
fffb
fff9
0003
0008
0004
0007
000c
0002
0000
0007
0001
fff9
fff7
fffe
0001
0002
0000
fffa
0006
0000
000b
0005
000d
000c
0006
0005
0000
fffd
fff8
fffd
fffb
0000
fffa
fffa
0008
0005
0008
0007
000a
0007
000b
0005
fffb
fffc
fff6
fffc
fffd
fffa
0002
fff9
0006
0005
0003
0006
000a
000a
0009
0005
0008
0004
fff4
fff9
fff7
fffb
0000
fffc
0006
0005
0007
0008
000b
0005
0003
0009
0005
0007
0006
fff9
fff9
fff7
fff7
fff9
fffe
0007
0005
0000
000d
000a
0009
000a
000b
0001
0001
fff8
fff8
fffb
0000
fffd
ffff
0003
0003
0006
0003
0003
000a
0009
0009
0005
0002
fffd
0001
fffd
ffff
ffff
0001
fffb
0003
0002
0008
000b
000e
0001
0004
0002
0004
0007
0002
0003
000c
000b
fffa
fffa
0004
0002
0005
0010
000f
0002
0002
0000
0002
0000
0000
0001
0008
0000
fff8
fffe
0004
000b
0008
0010
000f
000c
0007
0002
fffc
0000
0004
0002
0004
0009
fffd
0003
0003
000b
000c
0009
000a
000c
000f
0007
fffb
fffd
0003
000b
000b
0003
fffe
0001
0008
000d
0009
000f
0011
0011
0010
fffb
0000
fffd
0002
0006
0007
0008
ffff
0000
0002
000d
000b
000e
000d
0010
000d
fffa
ffff
fff8
0000
000b
0007
0009
0005
0000
0008
0009
000d
0007
000d
0009
0006
0003
fff9
0000
0002
0006
0006
0009
0007
0005
0008
000f
0010
0009
0009
000f
000b
fffa
0000
0001
fffd
0006
000f
000e
fffe
0001
0005
000a
0007
000f
0010
000e
000b
fffa
fffb
fff9
0000
000b
000f
0004
0003
0005
000b
000f
000c
0011
0008
000d
000c
fffb
fff8
0000
ffff
000e
000e
0009
0003
0006
000b
0007
0009
0006
000d
000a
000a
ffff
fff8
fffd
0000
000f
000c
0007
0002
0001
0002
000c
000a
000f
000a
000b
0009
0000
0000
fff6
fffc
0005
000b
0002
0006
000a
0005
0009
000a
000b
0009
000c
000d
0005
ffff
fff8
fffc
0009
000b
0003
0000
0001
0001
0008
000b
0007
0009
000b
0009
0006
0008
0000
000d
0005
000e
000b
0006
0000
0002
0000
000d
0006
000f
0009
000f
0006
000e
000d
0003
0005
0004
0000
0000
0006
0005
0000
0004
0008
0010
000d
0007
000d
0006
0009
0005
0009
0009
0007
fffb
fff9
ffff
fff5
0000
0001
0008
0006
000e
000c
0009
0009
0000
0002
0006
0004
fffa
fff6
fff7
fff8
fffd
0000
0004
fffe
0003
0003
ffff
0001
fffe
fffb
fffe
fffe
fff7
fff6
ffff
fff5
fffb
0000
fffe
ffff
0000
fff9
0003
0001
0004
0000
0003
0003
fffb
fffb
fffc
fffc
fff6
fffd
fffc
0000
fffc
fffe
0005
0000
0005
fffe
0000
0002
0000
fffe
fffa
fffb
fffe
fffe
0004
0001
fffe
0002
0007
0003
0000
0002
0005
0007
0004
fffc
0000
fff8
fff7
0003
ffff
ffff
ffff
fffd
0000
fffa
fffc
0004
0001
0002
fffb
0001
fffe
fffe
0000
0005
000a
0009
0009
0001
0000
fffc
0000
0000
fff9
0007
0000
fffd
fffb
fffc
0009
000a
0004
000b
000b
000c
0003
ffff
0001
fff9
fffe
0002
0000
fffc
fffe
0002
0009
0005
0005
000b
0006
0009
fffe
0000
0002
0001
0001
0005
0004
fffd
0004
0008
0004
fffd
0000
0006
000c
fffc
fff7
fffa
ffff
fffd
0001
fffd
0000
0000
0007
0004
0002
0009
0002
0007
000a
0002
fffa
fffc
fffa
ffff
fffb
0006
0003
fffc
0006
0008
0002
000b
000c
000c
000d
0004
fff6
fff6
fff9
fff9
ffff
0005
ffff
0000
0003
0004
fffb
0002
000e
0005
0009
0004
ffff
fff7
fff7
0002
fffe
fffd
fffc
fffd
0000
0000
0003
0002
000c
0001
000b
0001
0007
0008
fffc
fffd
ffff
0000
fff9
0005
0003
0000
fffe
0008
fffe
fffd
ffff
fffb
0005
fffe
fffb
0001
fffd
0003
0001
0000
0002
fffc
0001
0003
0002
0005
0007
0007
0007
0003
0004
0004
0001
0000
fffa
0000
fffe
fffe
0007
0009
000a
0000
fffb
0000
0003
0007
ffff
0000
000b
0000
ffff
fffd
fffb
0006
000b
000f
0004
ffff
0006
fffe
ffff
0003
ffff
0006
0007
0001
ffff
fffd
fff9
0007
0008
0010
0009
000a
000a
0009
0004
fffc
fffa
0007
0003
0007
fffc
0001
ffff
0007
0005
000d
000e
000a
0007
0005
0008
fffd
0001
0009
0003
000b
ffff
fffc
ffff
000a
0008
000a
000f
000e
000f
0008
0004
0000
0001
0000
0004
0004
0003
0003
0000
0003
0007
000e
0010
000c
000d
000e
0005
0005
ffff
fffd
0009
000f
0004
0003
0000
0003
0009
0010
000b
0009
000c
000a
0002
0004
fffd
fffb
000c
0005
fffe
0002
0004
000b
0008
000e
0010
000e
0010
000a
0004
fffa
fff9
0005
0005
000d
fffc
0004
0000
0007
0007
000a
000c
0011
000c
000c
ffff
fffe
fffe
fffd
0008
000b
fffe
0004
0007
0003
0009
0008
0007
000e
0006
000a
0003
fffd
0000
fffb
0005
0006
0008
0003
0009
000b
0003
000b
000c
000a
0009
000d
0007
0000
ffff
ffff
0007
0006
0004
0005
0000
0009
0002
0008
0009
0008
000a
0009
fffe
fffb
fff7
0007
0006
0008
fffd
0003
0003
fffe
0006
0009
000e
000b
0006
0007
0004
0000
fffe
0005
0006
000c
0000
fffe
fffe
0001
0005
0008
000e
0004
000a
0008
0003
0006
0002
0001
000b
000a
fffd
fffd
0001
fffa
0006
0006
0005
0009
000d
0008
000c
0005
0007
0006
000b
0004
fffe
0003
0002
fffd
0000
0007
000a
000a
000c
0006
0005
0002
0000
0006
0009
0004
ffff
fffb
0000
0005
000a
0001
0002
0008
0000
0006
0006
0007
fffe
0000
ffff
fffe
fff7
fff6
fff8
0003
0008
0009
fffe
0002
0000
ffff
fffc
0006
fffb
0000
0002
0001
fffd
fffc
0001
0003
0008
0003
0002
0001
0000
0001
0004
ffff
0001
0002
0001
fffe
0003
0002
fffa
ffff
0001
0002
0000
fffd
0000
0000
fffc
0002
fffb
0003
ffff
0006
0004
fffe
fffe
0005
0006
0008
0003
fffd
fffe
0000
fffe
fffc
fffe
fffd
0005
0004
0000
0001
0004
0001
000e
0006
0004
ffff
ffff
0002
0004
fffb
0001
0000
0003
fffd
fffd
0004
0006
000d
000c
000d
0008
0004
ffff
fffb
0002
fffd
fffc
0004
0000
0001
0004
0003
0001
0004
000b
0007
000a
0004
ffff
fffb
ffff
fffb
ffff
0003
fffe
0004
fffe
0002
0005
000c
000a
000b
000b
fffe
0002
fffa
0001
ffff
fffb
fffb
0002
fffa
0001
0006
0002
0006
000b
0005
0007
fffe
0003
fffb
fff9
ffff
ffff
fffb
fffc
fffb
0009
0007
0002
0008
0009
0005
0008
0003
fffa
fff9
fff9
fffd
fffb
0003
0001
0000
0001
0007
0007
0000
0007
0004
0002
0000
fffc
fff9
fff9
fff9
fff9
0001
fffd
fffb
0001
0009
0003
ffff
0006
000a
0006
0004
fffe
fffb
fffd
fffb
fffb
fffb
fffe
fff9
0006
0008
fffb
0002
0009
0000
0000
0005
ffff
fff8
0000
fff9
fff6
fffb
0001
fff8
0008
0003
0001
0001
0009
0004
0004
0005
fffd
fffc
0000
fffb
0000
fffd
ffff
fffc
0000
fffd
ffff
0004
0002
000a
0005
0005
fffd
0000
fffe
fff5
fffc
fffb
fffb
fffc
fff9
fff9
fff9
fffc
0001
0003
000a
0008
0008
0009
0006
0008
0008
0001
000a
0006
fffd
ffff
fffd
fffa
fffa
fffd
0001
0006
0004
0006
0002
0003
ffff
0003
0007
0000
0000
fffc
fffa
fff6
ffff
ffff
0000
fffe
0006
0002
fffe
ffff
0005
0002
0006
0004
fffe
0000
ffff
fffd
ffff
0001
fffa
fffa
fffe
0001
0006
0005
fffd
0001
000a
ffff
0004
0006
0004
0000
0003
0002
ffff
ffff
0007
0007
0000
0005
0002
0004
0006
0006
0001
0006
0006
fffc
0003
0002
0001
0002
fffd
fff9
ffff
0000
0000
0004
0009
0005
fffd
0000
fffe
000a
0009
0004
000c
0005
fffd
fffe
fffe
0000
0000
0004
0004
0005
0004
ffff
0001
0009
0007
0007
0006
0006
000a
0004
0009
fff8
0000
fffa
fffe
0003
0000
0000
0008
0007
000a
0005
0008
000a
0002
0006
0000
0001
0000
fffe
fffb
fffa
fffb
fffd
000d
000e
000c
0004
0008
000c
0007
0000
fff6
fffb
fff7
fffe
0000
0000
0001
0007
0002
000d
0006
0001
0008
0010
0003
fff8
ffff
fffa
0000
fffe
ffff
0000
0001
0007
000a
0002
000d
0009
0008
0009
0008
fff9
fffb
fffc
fffa
0001
fffd
fffa
0003
0008
0003
0003
0006
0004
0009
000d
000a
fffe
fff8
fff3
fff8
fffa
0000
fffa
fffd
0000
0002
0001
0006
0000
0009
000a
0003
0004
0003
fffd
fff9
0001
fffc
fffa
fffc
0002
0000
0002
000b
0003
0000
000a
0004
0000
fffb
fffe
fffc
0001
ffff
0002
0005
0001
0002
ffff
0007
0009
0003
000b
0003
0008
0002
ffff
0001
fffa
0002
0000
fffb
fffe
fffb
fffb
0004
000a
0006
000d
0006
0006
0005
0008
0005
0001
0008
0001
fffb
fff9
fff6
0002
0004
000c
0004
ffff
fffc
fffd
0006
fffa
0000
0000
0000
0002
fff6
fffc
fffc
0003
0005
0009
000b
0005
0000
0001
0001
fffb
fff8
fffb
0003
0008
fffe
fffc
fff9
0007
000b
000d
000b
000a
000b
0008
fffd
0001
fffa
0005
0004
0008
fff9
fff9
0001
0000
000c
000e
0002
0008
0005
0009
0003
0008
ffff
fffb
0002
0002
0004
ffff
fffc
0002
000d
000b
0003
0007
000b
0008
fffc
fffe
fffc
0003
0004
000c
fffd
fffb
0003
0009
0010
000a
0006
0004
0006
0002
fffe
0001
0002
fffe
0007
0004
fffe
fff9
0000
0004
000f
0012
0008
000c
000a
0004
0005
0001
fffe
0001
0002
0008
0003
ffff
ffff
0008
0007
0012
000c
0010
0007
0006
0007
0005
ffff
0000
0001
0002
0006
0001
0006
0009
0007
0009
0003
000f
000f
0007
fffe
0001
ffff
fffd
000b
0000
0000
0007
0004
000c
0004
000d
0007
0006
0005
0004
ffff
0000
fffb
fffe
0008
0002
0005
0001
0002
000b
000b
0007
0008
0006
000d
0003
0003
fffc
0000
0002
0008
0000
ffff
ffff
0000
0001
0000
0009
000c
0005
0009
0000
0000
ffff
fff7
fffb
0007
0001
fffc
0007
fffc
fffa
0004
0002
0009
000c
0006
0004
0000
ffff
0002
fffe
0001
fffe
0005
0000
0004
fffd
0001
000a
0000
0009
0000
0006
0001
0007
0000
0000
0000
fffe
0002
fffd
fffc
fffc
0001
0003
0003
0001
0000
fffd
fffb
0001
fffd
0002
0000
0005
ffff
fff9
0000
fffa
fffa
ffff
fff7
0000
fffa
fffe
fff9
fffd
fff8
fff8
ffff
0000
fffc
fffb
fffb
0000
0000
0002
fff9
fff6
0000
fffd
fffe
fff7
fff7
0000
fff9
0000
ffff
fff8
fff8
fffd
fffb
0001
fffd
fffa
fff8
fffa
fffa
0000
fff7
fffb
0000
fffa
fff8
fffc
fffb
fff7
fffc
0001
fffb
fffb
0001
ffff
fff7
0000
fff8
0000
fffa
0004
fffe
fffa
0001
0000
0000
0000
0000
0000
fffa
ffff
ffff
0001
fff8
fffe
fff9
0000
0000
fffe
fffb
fff9
0003
0000
fffb
fffd
fffc
fff8
0001
0000
ffff
0000
0000
0003
0000
ffff
fffe
ffff
fffc
fffc
0000
fffd
fffb
0000
fffe
0001
0001
fffc
fffa
ffff
fffc
fffe
0000
fffe
0000
0001
0006
0004
0004
0000
0002
0000
fffd
fff9
fffe
fffe
0000
0001
0000
fffc
ffff
fffd
0000
fffe
0001
fffa
0000
fffd
fffe
fffc
ffff
0001
0000
0000
fffd
fffb
0005
fffd
fffb
0004
ffff
fff9
fffc
fffa
0001
fff9
0000
ffff
0002
0001
fffc
ffff
fffb
0000
0002
ffff
ffff
fffe
fff9
0000
fff9
0001
fffe
ffff
fffa
0000
fffb
0000
fffa
fffd
0004
0003
0004
fffe
fffd
fff9
fff9
fffc
ffff
fffa
0000
0000
fff9
ffff
ffff
0003
0000
0005
0000
0000
0002
fffe
fffe
fffa
fffb
0000
fff9
fffc
fff9
fff7
0001
0003
0003
0002
0003
0000
0002
fffb
fffb
fffc
0000
0001
0001
0000
fffd
fffc
fff8
fff9
0000
fffc
fffd
0003
0000
fffe
0002
fffc
0003
fffe
0000
0001
fffb
fffd
fffd
fff8
fffc
fff9
0003
fffe
0003
0001
fffa
fffb
ffff
fffc
fff5
fffe
fffe
0000
ffff
fffd
0004
000e
0007
0008
000e
0006
0002
0004
0009
000b
fffc
fff8
0001
0000
0002
0000
0009
000c
000a
0006
000c
0001
0008
0007
000c
0006
fffc
fff7
0002
0001
0000
0001
0001
0007
0008
000d
0002
0008
0008
0003
0005
0000
fffc
fffa
ffff
ffff
fffe
fffe
ffff
ffff
0006
0005
0001
0004
0001
fffe
0001
0002
0004
0002
000a
0004
0002
0002
fffe
0001
0002
0003
0007
0002
0006
0006
0009
0001
fffe
0007
0005
0008
0008
0009
0001
0004
fffe
0001
0004
0002
0005
000a
000b
0000
0000
0000
0005
0005
000a
0006
0007
000a
fffb
fffb
0000
0003
0004
0004
0001
0001
ffff
0005
0003
0010
0010
000c
0009
000e
0000
0009
0007
0002
ffff
fffd
0003
0000
ffff
0009
0009
000f
0009
0003
0005
0005
0004
fffd
0000
fffe
fffb
fffb
0005
fffa
0002
0009
000d
000d
000a
0009
0001
0009
0001
fffb
fffd
0000
fff8
0000
fffa
0000
0008
0003
000c
0006
0010
000a
0007
0006
ffff
fff8
fffc
fff7
fffe
ffff
fffc
fffd
0005
0009
0005
000e
0008
0009
000c
000a
0003
fff3
fff1
fffc
fff3
fff9
fffb
0001
0002
0002
0003
0009
0008
000a
000b
000b
000b
ffff
fff9
fff7
fff9
fff6
fff7
fffa
0003
0003
0009
0004
0008
000d
0003
0009
000d
0006
0002
fffc
fff5
fffa
fffc
fffd
0000
0005
0001
0003
0009
0009
0007
0004
0006
0000
0000
fff8
fff7
ffff
fffe
fffa
ffff
0001
0000
0008
0009
000c
0008
000e
000c
000a
0004
fffb
fff7
fff8
fff8
0000
fffa
fff9
ffff
000a
000f
000d
0006
0004
0006
0009
0003
0006
0008
0004
000c
000a
fffe
0000
0000
000e
0007
0006
0006
fffd
0005
0002
0001
0002
0008
0009
0007
0004
fffc
fffe
0007
0007
000c
0009
0006
0004
0001
0000
0000
0002
0007
0007
0006
000c
0000
0002
0008
0008
0010
000f
0013
000f
0011
0000
fff9
fffd
000e
0005
0004
0002
ffff
0002
0007
0007
000c
0010
000f
0011
000b
fffd
0000
ffff
0004
000c
0005
0006
0005
0004
0004
0009
0009
000b
0013
000a
000a
0000
0000
fff6
0001
000b
000d
0007
0007
ffff
0004
000a
000d
000a
000a
0012
0007
0001
fffe
fffd
fffe
000d
0009
000c
0001
0008
0007
0011
000d
000b
0014
0011
0005
fffd
fffb
fffc
0001
0009
000f
0009
fffe
0004
000d
0009
000a
000c
000a
000e
0009
fff9
fffa
0003
0003
0010
000e
000c
0003
0003
0008
0009
000a
0010
000f
000f
000b
fffb
fff7
fff6
0000
0006
000d
0004
0006
0005
0010
000d
0008
0008
000e
000b
0010
0003
ffff
fff9
0000
000f
000c
0005
0002
000d
000f
0007
0008
000c
000b
0011
0012
0004
fffa
fffd
fffd
0011
0008
000b
0007
000c
000a
000c
000b
000b
000b
0008
000d
0008
fffc
fff5
0000
0010
0008
0009
000a
0008
0005
0007
000e
000c
0010
000b
000a
000c
000a
0002
000c
0010
000d
0004
0000
0000
0000
0004
0006
0011
000b
0010
000e
0008
000c
0009
0009
0011
000c
0005
0008
0008
0004
0008
000e
000f
000c
0008
0007
0008
000f
0006
000e
0006
0009
0005
0000
0000
0000
fffa
fffb
0001
0011
000b
0008
0004
0005
0008
0009
0008
0004
0003
fff7
0000
0000
fff8
fffb
fffa
0000
0000
0003
0001
fff7
fffb
0001
fff9
fff8
0001
0001
ffff
fff8
fff4
fff7
0001
0006
fffb
fffb
fffb
0006
fffe
0001
fffe
fffd
0004
fffb
fffb
0000
fff6
fff7
fffc
0002
fffa
fffa
ffff
0005
0002
0006
0005
0007
0004
0004
0004
0001
fff8
0000
0002
0004
ffff
0004
0006
000b
0000
0004
0004
0000
0005
0000
0008
0003
fffb
fff5
0006
0000
0003
0001
0008
ffff
0000
ffff
0009
0000
0005
0003
0000
fffe
fffb
ffff
0000
0008
0009
0006
fffb
ffff
fff6
fff7
fffe
ffff
0006
0002
0004
fffc
ffff
000c
0007
000e
000c
0007
000e
0005
0008
0001
fffa
fffc
0005
0001
fffc
0006
0003
000c
0008
0007
0003
0006
0003
0008
0000
0001
0000
0000
0000
0004
fffe
0006
0004
000c
0003
0005
000e
0003
0000
fff8
fffc
fffa
fffe
fff8
fffc
0000
0007
0000
0007
0006
0003
000c
000b
000f
fffd
fff9
fff7
fffc
fffd
fff9
0004
fffe
ffff
0002
0008
0001
0006
0006
0008
000d
0006
fff8
fff9
fff7
fffd
0003
0002
0006
fffd
0002
0000
0004
0002
000a
000d
000b
0004
fffb
fff5
fffa
fffe
fff9
0001
0000
fffd
0003
0002
0000
0003
000b
0008
0005
000b
0004
0006
0003
fffe
fffd
ffff
0000
0000
0000
fffe
0001
0000
0001
ffff
0006
fffe
0003
0003
0004
0003
fffd
0006
ffff
0000
fffa
fffe
0008
000a
0008
0007
0009
000a
0003
0006
0001
0001
0006
ffff
fffd
fffc
fffd
0005
0009
000d
0008
fffa
fffd
fffa
fffd
0000
0004
0003
0006
000b
fffb
fffe
0000
0003
0005
0008
0005
fffc
fffd
fffe
0004
0004
0000
0000
000a
0003
fffd
fffc
0000
0000
0009
0006
0008
0000
000a
0003
ffff
0002
ffff
0007
0009
0003
fffe
ffff
fffe
0003
000e
000a
0007
000b
0008
0009
0003
fff8
0000
0006
0005
0006
0003
0004
0006
0002
0008
000d
0006
0011
000e
0009
0004
0004
fffd
ffff
0007
000e
0005
fffb
ffff
000c
0011
000e
0008
0012
000f
000a
0003
fffc
fff6
ffff
000b
000f
ffff
ffff
0000
000f
0010
0009
000a
000b
0011
0007
0002
fffc
fffe
0000
000f
000e
fffc
fffc
0006
0007
0008
000b
0009
0009
000d
0005
0003
fff9
fffd
0000
0005
000d
ffff
fffe
0006
000c
000e
000b
0008
000d
0009
0006
ffff
fff8
fff7
fffb
000b
0009
fffc
0000
0006
0005
0010
000d
000a
0008
000a
000c
0008
fff6
fff6
0000
0007
0009
0001
ffff
0000
0007
000e
0006
0007
0009
000b
0007
0000
0002
fff9
fffe
000a
000b
ffff
0001
0000
0006
0005
0004
0008
000d
000a
0006
0004
0000
ffff
fffd
000d
000e
0001
0000
0007
0003
0005
000f
000a
0005
0006
000c
0009
0005
0004
0007
000f
000a
fffe
ffff
0004
fffe
0001
000d
0003
0003
000d
0008
0005
0003
0001
0003
000a
000b
ffff
0000
0000
fffe
0004
000c
0009
000d
0007
0007
000c
000b
0004
0007
000f
000a
0002
fffe
ffff
0001
0002
000c
0005
0007
0004
0005
000b
0009
0007
0005
0009
0006
ffff
fff7
0001
0003
000a
0004
0000
0002
0006
0009
0001
0007
0002
0004
0000
0007
fff6
fffe
ffff
0003
0002
0004
0000
0001
0005
0005
0006
fffe
0002
0002
0002
0002
fffe
fffe
ffff
0001
0005
0004
fffb
0000
0003
0000
0002
0000
fffc
0002
ffff
0000
fffc
0002
0001
0005
0007
0001
fffc
0000
fffb
0000
0004
0001
ffff
0001
0000
0004
fffc
0002
0002
0001
000b
0002
0001
0003
fffd
fffe
fffe
0000
0000
0001
0000
0002
0001
0005
0002
0008
0007
000c
0005
fffd
0000
0000
0004
0006
fffe
fffe
0000
0004
0000
fffd
0000
0006
0009
0003
0002
0002
fffc
fffd
fffe
0000
0002
fffc
0003
0005
0000
0000
0004
0008
0010
000c
0007
0008
fffe
fffb
fffe
ffff
0000
0002
fffa
0001
0001
0006
000a
0006
0008
0006
0003
0002
0003
ffff
0002
0004
fffe
fffe
0002
0000
0002
0000
000b
000d
000d
0008
000a
0002
fffa
0001
fff9
ffff
fffc
fffd
fffe
0000
0003
0002
0007
0005
0005
0007
0006
0005
fffd
fff8
fffe
0000
fffe
0000
fff9
fffd
0003
0007
0003
0005
0009
0009
0007
0000
0000
fffd
ffff
fffd
fffc
fffe
fffb
ffff
0006
0006
0005
0001
0002
0009
0004
0006
fffb
fff9
fffa
0000
fffa
fffb
ffff
fffe
0004
0007
0000
0000
0008
0000
0006
0006
0003
fffb
0000
fff8
fffb
fffe
fff7
fff9
0003
fffe
0000
0008
0001
0004
0006
fffc
fffb
fff5
fffc
fffd
ffff
0000
fffd
fffa
0007
0003
ffff
0002
0006
0007
000a
0002
fffc
fffc
fff4
fff7
fffa
fff6
fffe
fff6
fff6
fffd
fffc
fffd
0006
0002
0002
000c
000c
0008
0005
0003
ffff
fffe
0003
000b
fff9
ffff
0002
fffb
ffff
0003
0009
000c
0007
0002
0000
0004
fffd
0003
0000
0003
0000
0000
fffe
0002
0002
0008
0001
fffd
0004
0007
0004
0002
0000
0000
0007
0003
fff8
fffd
0000
fffd
0000
ffff
fff7
fff9
fffe
0004
0007
0006
0002
0000
0004
0006
0000
0006
000a
0000
0003
ffff
0000
0004
000a
000d
0009
0000
0003
0000
0004
0004
0009
0002
0006
fffe
0008
0004
0004
0004
0003
ffff
fffe
fffe
0001
0001
0006
0005
0000
0006
0006
0006
0007
000e
000d
0009
0006
0000
0000
fff9
fffe
0002
ffff
0000
fffd
0006
0009
000b
0008
0007
000b
0006
000a
0006
0007
fffd
fffb
0001
fff9
0000
fffd
fffe
0006
000d
0007
0008
0005
0008
0007
0008
fffe
ffff
0000
fff6
0000
fffb
ffff
0003
0009
0006
000d
000b
0007
0004
0008
fffa
ffff
ffff
0001
fffd
0000
ffff
0007
0000
0009
000d
0006
0004
000b
0007
0000
fffe
fffe
fffc
fffa
fffd
fffc
fffd
0009
0000
0008
0005
000c
000c
0010
0008
0000
fffe
fffd
fffb
ffff
fffc
0000
0000
0008
0008
0003
0007
0007
000e
000d
000d
000a
0004
fff6
fff7
0000
fffd
0002
0000
0003
0000
0002
fffe
0003
0003
000a
0009
000a
0007
0000
fffc
0000
ffff
0001
fffc
fffe
fffd
0004
fffd
000a
0004
0004
0002
0001
fffe
0007
fffd
fffb
0000
fffd
fff8
fffe
0005
0000
0000
0002
0000
0005
0008
0009
0000
0005
fffd
0002
fff7
fffa
fffc
fffc
fffc
fffe
fffb
fffc
0000
0001
0000
fffe
0000
0003
fffd
fffa
0000
0003
0003
fffd
0001
fffd
0002
fffa
fffc
0002
0004
0000
0004
0001
0005
0000
0003
fffc
fffd
fffc
fffb
0000
fffe
ffff
0002
0000
0000
fffd
0000
0003
0000
0001
0000
0001
0001
fffb
fffa
fffa
fffd
fffc
0002
fffe
0001
0001
0002
0003
0001
0005
fffb
fffe
ffff
0003
fffc
fffb
0003
0001
fffe
fffb
0000
0000
fffe
fffb
0000
0000
0003
0000
0000
fffa
fffe
0000
0000
0002
ffff
fffc
ffff
0001
0002
0002
ffff
ffff
fffe
0000
0003
0001
fffd
fffe
0001
fffb
0003
ffff
0001
0001
fffc
0000
ffff
fffb
0000
ffff
0000
ffff
fffe
fffc
fffa
0000
fffc
fff9
0000
0005
fffc
0000
0002
fffd
0004
0004
0001
0001
0002
fffd
fffd
ffff
fffb
fffb
fffe
ffff
0003
fffd
fffe
fffe
0001
0000
0002
fffb
fffe
ffff
0001
fffb
0000
fffd
fffb
fffb
0001
ffff
0000
0004
fffc
0002
ffff
0002
fffa
0003
0003
ffff
fffc
0003
fffc
0003
0002
0002
0000
0003
0003
0000
ffff
ffff
fffb
fffc
fffe
0002
0001
fffc
fffa
fffd
fffd
fffc
0000
0004
ffff
fffa
ffff
0002
fffb
fffe
ffff
0002
fffb
fffa
ffff
0000
fffc
0002
0003
0004
ffff
fffc
fffd
fff9
fffb
0000
0000
0001
fffd
0001
fffe
fffd
0000
fffc
0000
0003
0002
0002
0003
fffe
0000
fff9
0000
fffa
fffd
0003
0002
0001
fffb
ffff
fffc
0003
ffff
0003
0002
0001
0001
0000
ffff
fffe
0000
fffd
fffd
0001
0000
fffb
fffc
0000
0003
0003
fffe
fffd
0002
fffe
0001
fffd
0004
0000
fffd
0003
ffff
fffc
fffd
fffa
0000
fffd
0000
fffe
0000
fffc
fffe
fffb
0000
0002
0001
fffe
0000
0002
0001
fffc
0003
fffc
0000
fffe
ffff
0003
fffe
fffc
fffd
fffa
fffc
fffd
ffff
ffff
fffc
fffa
0003
fffd
0001
fffa
0001
0003
fffa
fffb
0003
0000
fffc
0000
fffc
fffc
0000
fffa
0000
fffa
0003
fffe
fffd
fffc
0000
fffb
fffa
0000
fffc
0000
fffb
0002
0001
0001
0002
0003
0003
0000
0003
fffb
fffc
0003
0003
fffe
0000
fffc
0004
0000
fffe
fffe
0004
fffd
fffd
0000
fffe
fffc
fffd
fffc
fffe
fffd
fffd
fffd
0000
0000
ffff
0000
fffb
0000
fffb
fffa
0002
0002
0002
0003
fffa
0003
0003
fffe
fffa
0002
fffc
fffd
fffb
0001
fffc
fffc
0000
0002
fff9
fff9
0000
ffff
fffa
fffc
0000
fffd
0001
0000
fffd
0001
0002
0001
fffb
0000
0003
fffa
fffa
fffd
fffb
fffe
fffa
fffc
fffc
fffc
fffc
0003
fffd
ffff
0000
fffd
fffc
fffd
0001
fffc
ffff
0003
fffa
0000
fffd
0001
fffa
0002
0002
ffff
fffd
fffd
0000
0001
ffff
ffff
0003
0000
fffa
0001
0000
ffff
ffff
0002
0000
fffa
0001
fffc
fffd
fffa
fffd
0002
fffd
0002
0002
ffff
fffa
ffff
0000
fffd
0002
fffa
fffa
0003
0003
0002
fffa
0002
fffd
0000
fffe
0001
0003
fffa
fffa
fffd
0003
0000
0003
0003
0000
fffe
fffc
fffc
0000
0002
fffe
fff9
0003
fffd
0000
fffd
fffe
0000
ffff
0000
fffb
0003
fffb
0000
fffd
fffc
0000
0002
fffc
fffb
fffd
0001
0003
0001
0003
fffb
fffe
fffb
0002
0004
0000
fffb
fffd
0000
0004
0003
fffe
fffa
0001
0004
fffe
fffe
fffd
0000
0001
0001
0001
fffe
0003
0000
0002
0000
fffd
0000
fffb
fffc
0003
fffe
0004
0002
0000
fffb
fffa
fffd
0001
0000
fffa
fffc
0000
0000
0000
fffe
fffe
0000
0001
0000
0001
0000
0001
fffe
fffd
fffd
fffc
fffc
fffa
0002
0002
0005
fffb
0005
fffe
ffff
fffc
fffd
fffe
fffe
fffe
0001
fffe
0003
0002
0000
0001
0002
0001
fffb
fffd
0004
fffd
0000
0003
fffd
fffc
0000
0001
fffd
0002
0000
0003
0001
0001
0004
0001
0002
fffd
fffe
0002
fffb
fffe
fffd
fffa
0003
ffff
fffc
fffc
fffc
0003
fffb
0000
0002
fffc
0003
0000
ffff
fffe
fffd
fffe
fffc
0002
fffc
0003
0000
fffc
fffc
fffb
0001
fffb
fffc
fffd
0000
fffb
fffb
0000
0003
ffff
fffe
0003
fffe
0004
ffff
0000
fffe
0004
0004
0000
fffa
fffb
0001
0001
fffa
fffd
0004
fffb
fffd
fffb
fffb
fffa
fffa
0001
0003
0003
0000
0000
0002
0002
fffe
0004
0004
0000
0000
fffe
0002
0000
fffb
0001
0002
0002
0000
fffd
fffb
0000
0000
fffd
0003
fffd
fffe
0005
fffd
fffd
fffb
fffe
fffb
0004
ffff
0004
0000
0003
fffb
0002
fffb
0000
0005
fffc
fffb
0000
0004
fff9
fffe
fffd
fffd
0000
fffe
0000
0003
0004
0005
0002
fffe
fffe
0003
0002
fffb
0000
fffd
fffd
0000
0003
fffe
0000
fffb
0000
0000
0000
0001
fffc
0005
0003
fffd
fffa
0001
0000
0004
0003
0000
fffd
0005
0004
fffc
0003
fffc
fffa
ffff
ffff
0003
0005
0003
ffff
fffe
fff9
fffc
ffff
ffff
0004
0000
0002
fffe
fffe
ffff
fffc
0000
fffe
fffc
0005
0000
fffd
0003
0000
0000
0000
0000
fff9
ffff
fffd
fffd
fffe
0003
ffff
fffe
0001
0000
fffb
0000
fffe
0000
fffd
fffc
fffe
0001
0000
0002
0000
0003
0002
ffff
0000
0005
0000
0000
fffe
0001
fffe
0001
0000
0000
ffff
fffa
fffe
0000
0000
0004
fffc
fffc
fffc
0000
fffb
0001
0002
0002
fffa
fffe
fffb
fffc
0002
0000
0000
0002
fffc
fffb
ffff
0000
fffe
0000
0003
ffff
0003
0002
fffa
0003
fffc
0000
fffb
fffd
ffff
0002
0002
0003
0002
0000
ffff
fffb
0002
0001
fffb
fffc
fffb
0000
fffd
0000
fffc
fffe
0000
fffc
ffff
0003
fffb
fffb
0001
0000
fffd
0003
fffe
0000
0003
fffe
fffe
0000
0005
0005
0005
fffe
0004
0000
0000
fffc
0001
fffc
0001
0002
fffa
fffd
fffb
0001
0003
ffff
0003
fffd
0000
0001
fffe
0000
0003
0003
0001
fffb
fffa
0002
ffff
0003
0003
ffff
0002
0004
fffc
fffd
fffc
fffc
0002
0000
0000
fffe
fffe
0000
0001
ffff
fffe
fffc
fffe
0005
fffe
fffa
fffa
fffe
0003
fffb
0000
fff9
fffa
0000
fffe
fffd
fffd
0003
fffb
fffc
fffe
fffd
0000
fffc
0002
0001
0000
0004
0000
0000
0003
fffe
fffd
fffd
fffd
ffff
0002
fffb
fffe
0000
0002
0001
0003
0002
fffe
fffc
fffa
0000
fffa
0000
0002
0001
fffa
fffa
0000
fffa
fffc
fffc
0000
fffc
fffa
fffe
fffb
0003
fffc
0001
0003
fffb
0002
0000
fffd
ffff
fffc
0000
ffff
fffd
0000
ffff
fffb
0002
fff9
0003
fffb
0004
0001
0005
0000
0000
fffb
0000
fffd
0003
0000
ffff
0002
fffa
fffa
0000
fffe
0005
fffd
fffb
0001
0001
0002
0002
0000
fffe
fffd
ffff
0001
fffe
0002
fffb
0000
fffd
ffff
ffff
0002
0003
fffe
0002
fffc
0000
0004
0000
0002
0000
fffc
0001
0000
0003
fffd
fffd
0002
fffe
fffe
fffe
fffd
fffe
0003
0005
0004
0003
fffe
0002
0003
fffc
0005
0003
0003
0000
fffc
fffe
0003
0003
fffe
0001
fffd
0001
0003
0000
fffd
fffb
ffff
0003
0005
0000
0004
0001
0001
ffff
0005
0005
fffd
fffb
0001
0000
fffe
0002
0003
0004
fffb
fffc
ffff
0003
fffe
ffff
0000
0002
fffb
fffa
0000
0000
0001
0002
0000
0001
0003
fffd
fffd
fffc
0004
0002
0002
fffe
0001
0000
0001
0000
0004
0004
0001
0004
fffb
fffe
0003
ffff
fffc
fffc
fffc
0000
0000
0003
0000
0000
0002
0000
0003
fffe
0000
0000
0004
0003
fffe
0002
0002
0004
ffff
0004
0001
0002
0000
0000
0002
0002
0002
fffb
0000
0004
ffff
0003
fffd
0000
0003
0001
0003
0001
0000
ffff
0001
0004
0000
0001
fffb
0002
fffd
0000
0003
0002
0001
0004
0001
ffff
ffff
0005
fffe
0000
0003
0004
fffe
0003
fffc
0002
0002
ffff
fffe
ffff
fffe
0000
0000
0000
fffe
ffff
fffd
0003
0000
0003
0004
fffd
0003
ffff
0004
0000
0000
0001
fffc
0000
0001
0000
0003
fffb
ffff
0004
fffd
ffff
0002
fffe
0000
fffc
fffb
fffa
fffc
fffd
0002
0000
0001
fffe
0000
fffd
0003
fffe
fffb
0000
0005
0000
0004
0004
fffe
0000
fffd
fffd
0001
0000
0001
0000
0002
fffb
fffe
0000
0000
fffe
fffe
0002
fffd
fffe
fffc
fffd
0000
0002
ffff
fffc
0000
fffd
fffd
0000
0000
0002
0001
0000
ffff
0000
fffd
fffa
fffd
0003
fffc
fffc
0002
ffff
0002
fffc
ffff
fffe
ffff
0001
fffc
0000
0002
0002
fff9
0002
fffd
0003
0000
0001
fffe
0000
0005
0000
fffc
0000
0005
fffb
ffff
ffff
0003
fffa
fffd
0000
fffe
fffb
0003
0002
0003
0004
fffb
0000
0001
fffc
fffb
fffd
0001
fffe
fffa
fffc
0000
fffb
0000
fffc
0003
fffc
fffc
0005
ffff
fffd
0003
fffb
fffc
fffc
fffc
0003
ffff
fffa
0001
ffff
fffb
0000
0000
fffe
0004
fffe
fffe
ffff
fffd
0000
fffa
ffff
0000
ffff
fffb
fffa
fffc
0002
fffc
fffd
fffc
0003
0001
0005
fff9
fffc
0002
0001
0000
0002
0001
fffa
0001
0003
0000
fffc
0000
fffe
0004
ffff
0001
fffd
0000
0002
fffa
0000
ffff
0000
0004
fffd
ffff
fffe
0001
fffd
ffff
0003
0003
fffe
0001
0000
fffa
fffa
0001
0003
0001
0002
0002
0002
0002
fffd
0003
0000
0001
fffc
fffb
0002
0000
0002
0000
0003
0001
fffb
0002
0002
0001
0002
fffb
fffb
0002
0003
fffb
fffd
0000
fffe
0000
0002
0001
fffc
0000
0002
fffb
0004
ffff
fffd
fffd
fffe
fffe
fffc
ffff
ffff
0000
0000
fffa
fffd
0002
0000
fffc
0000
0000
fffd
0003
0001
0003
0004
0001
fffc
0003
fffa
0001
0000
fff9
0000
fffb
fffe
fff9
fffb
0001
ffff
fffb
fffb
ffff
0002
ffff
0000
fffe
ffff
0003
fffa
0000
fffe
0000
fffc
fffd
fffb
0000
0000
0002
fffd
fffd
0000
fffa
ffff
fffa
fffd
fffe
0000
0001
0000
0000
0003
fffc
fffc
fffd
fffc
fffc
0000
ffff
0000
0001
fffd
fffc
0000
fffb
fffd
0001
0002
0002
0002
fffa
fffc
fffa
fffb
0003
0000
fffd
fffc
fffe
fffb
0002
fffc
fffa
0003
fffc
0000
ffff
0000
0003
0002
fffb
fffe
fffd
fffe
0000
ffff
0000
fffb
0000
0000
fffc
0000
fffb
0000
0001
fff9
fffc
ffff
fffd
fffa
0002
0000
fffc
fffd
0000
0002
0000
fffc
0000
0001
fffb
0003
0000
fffa
fffc
fffe
fffa
0001
0001
0000
fffa
fffd
fffd
fffa
0000
fffb
0000
0003
0003
0003
fffc
fffb
fffe
0002
fffb
fff9
fffb
fffe
0003
fffa
fffa
fffa
fffa
fffd
0002
fffe
fffd
fffc
fffc
ffff
0000
0000
0000
fffb
fffa
0000
0002
fffd
fffb
0000
0000
fffd
fffc
fffd
0000
0003
fffa
fffc
fffd
fffe
0000
0003
fffa
0000
fffa
ffff
fffd
0003
0003
0002
fffc
fffd
0002
0000
fffd
0000
0002
ffff
fffd
0000
0003
0003
0000
fffd
fffd
0000
0003
fffd
0002
fffd
0004
fffb
ffff
0001
fff9
0001
fffe
0000
0001
ffff
fffa
fffe
fffc
fffc
0003
fffb
fffb
fffa
0002
0002
fffd
0002
0001
fffc
fffc
fffc
fffc
0000
fffd
0001
0002
0000
0000
fffa
0001
ffff
fffb
fffc
fffd
fffa
fffb
0003
fff9
0003
0000
fffa
fffb
0001
0001
0000
fffd
fffb
0000
fffc
0000
fffb
0003
0000
fffa
0002
fffe
0000
fffe
0000
fff9
0000
fffc
0000
fffc
fffe
fffe
fffe
ffff
0001
0001
0001
0001
fffc
0004
0003
fffd
0003
ffff
fffc
0001
0004
0000
0000
fffa
fffe
0000
ffff
0002
0000
0000
ffff
0002
0000
0000
0004
0000
ffff
0000
fffe
0003
fffc
fff9
0000
0001
0000
fffe
0001
0000
fffb
0003
0000
0001
fffe
0001
fffe
0000
0001
0000
ffff
0000
fffb
fffb
0003
0000
fffd
0000
0003
0004
0002
fffe
0000
0005
fffb
0000
0002
fffb
fffb
0000
0004
0000
0002
0003
0003
0003
0002
0000
0000
fffd
0000
fffd
fffe
fffb
fffd
0000
ffff
0004
ffff
fffd
0004
0000
0004
fffe
0002
fffd
0002
fffb
fffe
fffd
0002
fffe
0001
0000
0000
0005
0003
0000
0005
0000
fffb
fffc
fffc
fffc
0000
0000
fffa
ffff
fffe
0003
0003
0000
0000
0004
0002
0005
0002
fffd
0005
0000
0002
0004
0002
0005
0000
0000
0003
0000
fffc
0004
ffff
ffff
0005
fffb
ffff
fffd
0001
0001
0003
0002
0002
0001
0004
0000
0004
0005
0000
ffff
0000
0000
fffc
ffff
0002
0004
0002
0002
0001
0003
fffd
fffc
fffb
fffc
0002
0005
0005
0004
fffb
0003
fffe
fffc
0002
0005
0004
fffd
0001
0003
0004
0003
0000
0000
fffc
ffff
fffd
0003
0003
0005
0004
ffff
0002
fffd
fffe
ffff
fffe
0000
0004
fffd
0000
0005
fffd
0000
0000
fffe
0005
0002
0004
0004
fffb
0000
0000
0000
fffd
0000
0004
0003
fffd
0000
0005
0001
0000
0002
ffff
fffc
ffff
fffe
fffe
fffd
0003
fffd
ffff
0003
0001
fffe
fffd
0005
0001
0000
fffc
fffc
fffe
fff7
fff9
fff9
0001
000a
0007
0004
0006
0006
ffff
0000
0000
0008
ffff
ffff
ffff
fff8
fffe
ffff
0002
0006
0002
0005
0002
ffff
0004
0003
fffd
0006
0004
0000
fffc
fffb
fffe
0005
0009
000e
0004
0004
0007
0002
ffff
0001
0003
fffe
0009
0006
fff9
fffe
0000
0006
0008
0005
000d
000e
000b
0008
0006
0000
0002
0005
0006
0000
0003
fffb
fffd
0008
000b
0008
000e
0004
0005
000c
ffff
0001
ffff
0003
0008
000a
0004
fffd
0005
0000
0007
000a
0005
000c
000d
000a
fffd
0002
0005
0001
000b
0007
fffd
0000
0001
0001
000e
000c
000d
000f
0009
0007
0000
0002
0000
0000
000a
000b
fffe
fffb
0000
0007
000b
0009
0007
0007
0004
0008
0003
0000
0001
0001
000b
000d
0000
0004
0001
0007
000b
0012
000c
000d
0010
0003
0006
0000
fffe
0006
000d
0002
0005
0003
0006
000d
0005
0005
0008
000d
0010
0005
0002
0003
fff9
fffe
0004
0003
0001
ffff
0001
0007
000a
0008
000d
0008
000c
0005
0004
0000
fffd
fffe
0009
0007
0002
0002
000b
0005
0003
0009
000c
0011
000b
0003
ffff
fffb
fffa
0007
0004
0009
0006
0008
0000
0007
0007
000b
000c
0005
0006
0008
fffe
fffd
fffa
0000
0000
0009
0002
0008
ffff
0003
0006
0009
0003
0005
0009
0005
fffc
0003
0005
0002
0006
0008
0002
ffff
0003
fffa
0006
0005
0001
0005
0006
0008
0000
000a
0006
0008
0003
000a
0002
0002
0001
0000
0002
0007
0003
0008
0000
0000
ffff
fffe
fffd
0007
0005
0001
fffc
0001
fffc
0000
0000
fffd
ffff
ffff
fffc
fffd
fffd
0000
fff8
fff9
fffe
fffb
0001
fffa
0000
fff8
fff9
fff9
fff7
fffc
0000
fff9
0000
ffff
ffff
fff7
0000
ffff
fffa
fffd
fffb
fffa
fffb
0003
0001
fffc
fffb
ffff
ffff
fff8
fffc
fff8
fffe
fffc
fff7
fff8
ffff
fffc
fffd
fffb
fffa
0000
fffa
fff9
fffc
fffe
fffe
fffe
ffff
fffd
0000
fffa
0000
0001
0001
0000
fffc
0000
ffff
fffe
fffc
fffb
fff9
fffc
fffd
0002
fffa
fffe
fffa
fff9
fffd
0002
fffb
fffa
0004
0002
0001
0000
fff8
fffc
0003
0005
fffe
0002
0000
0001
fffb
0002
0000
ffff
0000
fffe
fff9
fff8
fffe
fffd
ffff
fffc
fffc
0000
fffd
fffd
0006
0004
0000
0007
0006
0007
0001
fffe
fffb
fffc
0003
ffff
fffc
fffd
ffff
0000
0004
0005
fffa
fffc
fffd
fffd
0001
fffb
fffc
0000
0003
fffe
fff9
ffff
0001
fffb
0001
0001
fffb
0003
0001
fff8
fffa
ffff
0002
0003
fffd
fffd
0002
0000
fffa
0000
0000
0003
fffe
fffd
0006
fffe
fffa
0001
fffd
fffb
fffb
ffff
0001
fff9
fffe
0001
fffd
fffc
0000
0000
ffff
fffb
fffe
0000
ffff
fffe
0000
fffd
fffa
0000
0000
fffb
fffa
fffe
fffb
fffc
0001
0003
fff8
0001
0002
fffe
fffb
ffff
fffa
ffff
fffa
fffd
ffff
fffa
fffb
fffa
fffb
fffe
0003
ffff
fffc
fffb
0001
fffa
fffa
fffc
0001
fffa
fffb
fff9
fffc
ffff
fffe
fffe
fffe
fffa
0000
ffff
ffff
0000
0000
fffe
fffa
0001
fffb
0001
fff8
0002
0000
fffa
0001
fffb
fffe
fffe
fffb
0003
fff7
fff9
fffb
0005
0003
0003
000b
000c
0008
0006
0004
0000
0004
0003
0005
0004
fff8
fffd
fffe
0000
fffc
0002
0002
0006
000a
000d
0007
0001
0007
0000
0007
0002
fffe
fffc
0003
0000
0002
fffb
0000
0004
000d
000b
0006
0004
fffd
0005
0003
0002
fff9
0002
0004
0000
fffb
fffe
0000
fffd
0006
0005
0000
fffe
0005
0000
0007
fffd
0006
0004
0001
0008
0007
0001
ffff
ffff
fffb
0002
ffff
fffd
fffe
0008
0001
0000
0001
0000
0002
0002
0007
0004
0000
fffc
ffff
0001
0000
0005
0008
0006
0006
fffd
0001
fffe
0000
0009
000a
0009
000e
0008
0001
fffb
0003
0003
0004
0002
0001
fffd
0002
0004
0004
000d
000b
000c
000b
0006
0007
0009
0008
0003
fffa
0000
0000
fffd
0005
0007
0007
0009
0006
0009
0005
0001
0003
fffe
0000
0000
0002
fff9
0002
0000
0006
0003
0009
000a
0005
0009
0002
0000
0001
0000
fffa
fffb
fffc
fffe
0003
fffb
0004
000b
000c
000d
000e
0004
000d
0002
0005
fff7
fffc
ffff
fffd
0002
ffff
fffc
000a
0009
0008
0007
0005
0007
0003
0008
0003
fffa
fff5
ffff
fffa
ffff
fffa
0001
0008
0003
0002
0004
0008
0007
000a
0008
0002
fffd
fffd
fffa
fffd
0000
fffd
ffff
fffe
0009
0000
0000
000e
000b
0005
0000
0001
0000
0002
fff7
ffff
fffe
0000
fffe
fffd
ffff
0001
0003
0008
0002
0003
0009
0001
fffe
ffff
fffd
0000
0000
0002
fff9
0001
0003
0000
0002
0008
000b
0007
000d
000b
0006
fffe
fffc
fff9
0000
fffb
0000
fffc
0000
ffff
0005
0007
000c
0004
0000
0002
0007
0004
0000
0008
0001
0008
0005
fff9
fff7
fffe
0009
000c
000f
000a
0001
0006
0005
0005
0001
0008
0003
0008
0004
ffff
0002
0006
000c
0010
000c
000b
0007
0001
0002
ffff
0005
0005
0007
0000
fffd
fffd
ffff
0006
0006
0007
0008
000a
000f
0010
0004
0001
fffe
0005
0005
0003
0005
0003
0003
0003
000e
0009
000b
000f
000a
000d
ffff
0002
0002
000a
000c
000e
0001
0002
0005
0001
000b
0009
0008
0012
000e
0009
0000
fff9
fffa
0000
000d
000f
0005
ffff
0001
0004
0005
0009
000c
0014
000c
0008
fffe
fffe
0002
0001
000c
0004
0004
0000
0007
000c
000d
0009
0009
0013
000b
0007
ffff
0001
fffb
0005
0006
000d
0006
0006
0008
000d
0010
000f
000c
0009
000d
0007
0000
0001
fffe
0000
0004
000f
0005
0002
0005
0003
000c
000b
000d
000d
0012
000d
0000
0000
fff7
0001
0004
0010
000d
0006
0006
0006
000f
0006
000e
000c
000d
000f
0002
fff8
0000
0003
000a
000e
0007
0008
0008
0004
0006
0005
0007
0008
000f
0007
fff9
fff7
0000
ffff
0008
0005
0003
0000
0003
000b
0002
000b
0006
0010
000c
000d
0007
fff9
fffa
0000
0009
000a
0003
0003
0000
0000
0000
0006
0006
0007
000d
0009
0007
0007
0000
0006
0007
000f
000b
0003
0007
0003
ffff
0006
0007
000c
0009
0005
0006
000d
000a
0004
0008
000d
0007
0004
0003
fffe
0002
0007
000e
0009
000c
000e
0009
0008
0006
000e
000d
0005
0005
fff4
fff7
fffd
fffe
fffe
fffe
0004
000a
0008
0004
0006
0001
fffe
0006
0006
0001
fff8
fff7
fff8
fffa
fffc
fff8
0000
0002
ffff
fffe
fffb
fffb
0000
0000
ffff
0004
ffff
fff8
fff9
fff8
fffb
0001
0002
fffd
fffe
0001
fffb
0000
fffc
0000
fffe
0002
ffff
ffff
fffb
fffd
fffb
fffb
0002
fffc
fffd
0003
0000
0004
ffff
0004
0002
0002
0002
0001
0004
fff6
fffe
fffe
fffc
0000
0003
0002
0002
0000
0008
0003
0000
0000
0000
ffff
0000
fff7
fffe
0001
fffd
fff9
0002
ffff
fffe
fffd
fffa
0001
0000
0008
fffe
fffc
0001
fffb
0000
0004
0009
0007
0001
fffc
0000
0000
fffe
0002
fffe
0004
fffe
fffc
fffe
0001
0004
0006
0006
000b
000d
000a
0006
0008
0000
fffa
fffd
0000
fffd
0000
0001
0000
0008
0006
0004
0005
000b
0006
fffe
fffc
ffff
0000
ffff
0007
fffd
0001
0000
000b
000d
0003
0005
0008
0008
fffe
fff6
0001
fffa
0000
0002
0007
0002
fffe
0001
0007
000a
0009
0008
0004
0006
0005
fff7
fffe
fffd
fffc
fffd
0000
0000
0006
0007
0006
0005
0008
000b
000d
000b
0006
fffc
fff9
fff8
fffa
fffa
0007
fffe
0002
0002
ffff
ffff
0003
0008
000e
000d
0001
ffff
fffd
fff7
0000
0000
0000
0000
0001
0000
fffe
0004
0003
0002
0002
000a
0000
0007
fffd
fffc
fffb
fffb
ffff
0000
fffd
0005
0000
0001
0006
0005
0000
0001
0002
0001
0001
fffc
fffd
fffb
0000
0003
0004
fffd
0002
0000
0005
0005
000d
0005
0007
fffe
fffb
fffe
0004
0000
fffb
fffc
fffc
ffff
0000
0005
0008
0004
0000
0000
fffd
0004
0000
0002
0005
0000
0007
fffe
0000
ffff
fffd
000a
0009
0006
fffd
0004
0005
0000
ffff
0007
0006
0004
fffd
fffa
ffff
fffb
0001
000a
0006
0005
0006
000a
000a
0006
0000
0000
0000
0003
0006
fffb
ffff
fffe
0008
000e
0008
0009
000e
0008
0008
0004
0001
fffc
000a
000e
0002
fffc
fffc
0000
0009
0010
0008
000a
000e
000a
0007
0000
0004
0002
000b
000e
0001
fffd
0000
0004
0005
000c
000d
000f
000b
0008
000e
0006
0000
0002
0004
000b
0009
0001
0000
fffd
0003
0008
000f
000c
000e
0012
000a
0008
0002
fffd
0005
0005
000d
0004
fffb
ffff
000e
0011
000a
0008
0010
000f
0010
0004
0000
0003
0007
000b
0009
0003
0000
0005
000d
000e
0010
000d
000a
0011
000c
0004
0000
fffc
0004
000a
0006
fffd
0003
0008
000b
000f
0009
0007
000a
0009
0008
fffe
fffa
fffb
0002
000b
0003
ffff
fffe
0000
0005
000a
0007
000d
0006
000d
000b
fffb
ffff
fffa
0001
0004
000a
0004
0005
ffff
0001
0004
0006
000a
000c
000f
0006
0003
fff9
fffb
0000
0004
000b
fffd
0004
ffff
0000
0000
0009
0009
000a
0006
000c
0000
fffe
fffe
0003
0009
0009
fffb
0003
0000
0003
0004
000c
0005
0007
0008
0009
000b
0004
0001
0008
000c
000b
0004
0002
0003
fff9
0001
000b
0005
0008
0006
0009
0007
000a
0005
0008
000b
0008
0005
0001
ffff
fffb
0000
000a
0001
000a
0002
0008
0006
0008
0005
0006
ffff
ffff
fff6
fffc
ffff
fffd
0002
0005
0004
0002
0007
0000
0005
0000
0000
0001
0007
0006
fff7
0000
fffe
0002
0007
0003
fffe
0004
0002
0002
fffc
fffd
fffa
0004
0005
fffe
ffff
fff9
fff9
0001
0003
0008
fffc
0003
0000
0003
fffd
fffb
0003
fffb
fffd
fffc
0000
0000
fffb
0001
0007
0007
0004
0003
fffe
fffb
0002
0000
fffc
fffd
0002
0001
0001
0000
0003
0001
0005
0001
0003
fffe
0002
ffff
fff9
fffb
fffd
0002
0004
0005
ffff
0000
ffff
0006
0007
000b
0006
0004
fffa
fffb
fffa
fffe
0002
0002
ffff
0002
0001
0000
0005
0009
0003
0007
0001
0000
fffa
0000
fffa
fff9
0001
ffff
0000
fffe
0000
0002
0008
0006
000a
0004
0003
ffff
0003
0001
0003
fffa
fffb
0000
fffe
fffc
fffb
0006
0004
0007
000b
0004
0006
0000
fffe
fff9
fffa
ffff
fffa
0001
0004
0001
0003
0008
0002
0003
0007
0002
0006
0003
0003
0000
0000
0002
0000
ffff
0000
0001
0008
000a
0004
0006
0008
0008
000d
0002
fff9
fffc
0001
fffe
0000
0003
0000
0001
0003
000a
0001
fffe
0006
0000
0004
0002
0000
0000
fffc
fffa
0000
0000
fff9
0001
0001
0006
fffe
0002
fffe
000a
0004
0001
fffb
fffa
ffff
fff9
0002
fffb
fffd
fff9
0001
0003
0001
fffe
0008
0004
0000
0000
0002
0001
fff8
ffff
ffff
ffff
0001
fffa
ffff
fffd
fffe
0000
0007
0005
0000
fffc
0001
ffff
fffa
fffd
fffb
fffc
fff8
fffa
0005
0000
fffe
fffc
0000
0005
0007
fffd
fffc
fffb
0000
fffd
fffe
fffa
0000
0000
0000
fffb
fff8
0000
0000
fffc
0002
0006
0004
000b
0003
0004
0006
0003
0004
0009
ffff
fff8
fff8
0001
0000
0001
0002
0008
0005
0007
0006
0001
0000
0004
0007
0005
fffc
ffff
fff7
0000
fffd
0000
0000
fffc
0001
0000
0001
0005
0002
fffd
0001
0005
fffa
0002
0000
fffd
fffa
fffd
0000
0000
fffc
fffe
fffe
0001
0002
0000
0006
0002
0004
0001
0008
0000
0004
0006
ffff
0000
0000
0009
ffff
0000
0002
0002
0003
0005
fffd
ffff
0005
0000
0002
000a
fffc
0001
fffe
fff8
0000
0004
0004
0002
0002
0004
0000
0003
fffc
0007
000d
0004
0007
0003
fffd
fff8
fffb
0000
0002
ffff
0001
0000
fffa
ffff
0003
0006
000d
0004
000d
0006
0008
000c
0000
fffb
fffd
0000
fffd
0000
0002
0005
0007
000b
0004
0006
0002
000b
0000
0003
fffb
0002
fffc
fffd
fffc
fffe
fffb
0001
000c
0005
0007
0008
000a
0002
fffd
fff7
fffd
fff7
0002
0001
fffe
fffd
0002
0002
0008
000a
000b
0007
0007
000c
0008
fff8
fff9
ffff
fffa
fff9
0001
fffd
0005
0000
000b
000c
0008
000b
000d
0008
0007
fff9
fff3
fff7
fff9
0002
0004
ffff
0001
0008
0006
0003
0008
0005
0010
000e
000b
0002
fffa
fffd
fffc
ffff
0001
fffe
fffd
fffd
0000
0006
0005
0008
000a
0009
0009
0000
0000
fffe
fffa
ffff
fffd
fffc
fffe
0000
fffc
0000
0005
000a
0009
0004
0004
fffd
0002
fffc
ffff
0002
0002
0001
fffc
0005
0000
fffe
0002
0009
0002
000b
000b
0005
0000
ffff
ffff
fff9
0001
0001
0003
0000
ffff
0005
fffe
fffb
fffe
fffb
fffb
0002
fffb
0003
fffd
ffff
fffd
fffe
0002
fffa
0001
ffff
0002
0003
fffb
fffd
fffa
0002
fffa
fffd
fffd
0002
ffff
0003
0002
0002
fffd
0000
fffd
fffb
fffa
fffa
fffb
fffd
0002
ffff
fffb
ffff
fffb
fffb
fffe
0002
0001
ffff
fffa
fffd
fffc
0002
fffd
fffe
fffe
ffff
0000
0001
0001
fffb
ffff
0001
fffc
0002
ffff
fff9
fffb
ffff
0001
0001
fffa
0000
0003
fffc
fffe
fff9
0003
0000
0001
fffb
fffd
0000
fffd
0003
fffb
0000
0002
0000
fffc
fffe
0000
fff9
ffff
0000
fffc
0002
ffff
0000
0001
0003
0001
fffd
fffc
0003
0000
fffd
fffc
fffd
ffff
0001
fffc
0000
ffff
fff9
0001
fffd
0002
ffff
fffb
ffff
ffff
fffa
fffa
0000
0000
fffe
ffff
fffd
fffc
fffb
0002
0000
fffc
0000
0000
0001
fffa
0003
0003
0002
fffe
0000
fffc
0002
0003
fffe
fffc
0000
fffa
fffd
fffa
0000
0001
fffa
0003
fffd
fffa
fffb
0002
0002
ffff
0000
0001
fffc
0001
0000
0001
ffff
0001
fffb
fffd
fffc
0001
fffb
0000
fff9
fffe
0003
fffc
ffff
0003
0001
fffe
0001
fffa
fffb
fffa
0000
0003
fffe
0000
ffff
fffb
fffd
0004
0003
fffc
0003
fffe
0001
0002
0001
fffe
ffff
fffc
fffe
0002
fffd
fffb
0003
ffff
0000
fffe
0003
fffe
0002
0002
0002
0000
fffb
fffc
0000
0001
fffa
0000
fffc
ffff
0001
0000
ffff
0002
0003
0000
0000
0003
0002
ffff
0000
0002
0001
0003
fffd
0000
fffb
0000
fffd
fffd
0003
0000
0000
0001
fffa
fffb
0003
fff9
0003
fffc
fffe
0000
0000
fffe
fffe
fffa
0003
ffff
fffe
ffff
0000
fffa
fffe
fffe
ffff
0000
fffb
0003
0003
fffc
0000
0001
fffe
fffe
fffa
0000
ffff
0002
0004
fffc
0003
fffb
fff9
0000
fffd
fffc
0000
ffff
0002
0002
fffb
fffd
0001
0001
fffc
0003
0002
fffc
0002
fffc
ffff
fffa
fffe
ffff
fff9
0001
0002
0000
0002
0001
fffe
0002
fffb
fff9
fffd
0000
0000
0000
fffa
0000
0000
fffa
fff9
0002
0000
0001
0003
0000
ffff
ffff
0001
fffa
fffe
0002
ffff
fffb
0003
fffc
0002
fff9
fffe
ffff
fffa
fffb
0001
0000
0003
fffb
0003
fffe
0002
fffe
fffb
ffff
fffd
fffe
0000
fffa
fffa
fffc
0000
0000
0002
0000
0001
0003
0002
ffff
fffc
fff9
0001
0000
0000
fffa
fffe
ffff
fffb
fff9
fffe
ffff
0001
0002
0000
ffff
fffc
0004
fffd
0001
0000
fffd
fffa
ffff
0002
0003
fff9
fffc
0002
0001
fffd
fffe
fff9
fffa
fffd
0001
0000
0000
fffe
ffff
fffd
0001
fffb
fffe
0001
0000
0000
0002
fffa
0000
0002
fffb
fffe
fffa
fff9
fffc
fffb
fffa
fffc
0000
0002
fff9
0000
fffe
0000
0001
ffff
ffff
fffb
0000
ffff
ffff
fffa
0003
fffe
fffc
0000
fffa
0002
fffd
fffd
0000
0004
0003
0003
ffff
fffa
fffb
0001
0001
fffc
0002
fff9
fffd
ffff
fffc
fffa
fffd
0001
fffd
0001
fffa
0003
fffb
0003
0000
fffd
0000
fffd
0000
fffd
fffa
fffd
ffff
fffc
fffb
0000
0000
0000
ffff
fffb
fffa
fffd
fffc
0001
fffe
ffff
ffff
0000
fffb
fffe
ffff
fffb
0002
fffd
fffd
0004
0003
0002
0000
fff9
0001
fffe
fffc
fffb
0000
ffff
0001
fffa
fffc
0002
fffd
fffd
0004
0001
0003
fffb
fffc
0000
0001
0000
0000
0000
0000
fffa
fffe
0000
fffc
fffb
fffe
0002
0002
0001
0001
fffa
fff9
fffd
fffc
ffff
fffa
ffff
fffd
fffe
0005
fffd
fffe
0003
fffd
0002
fffe
0000
0000
0001
fffb
0002
fffa
0002
0002
0001
0000
0000
fffe
ffff
0005
fffc
0001
fffe
0001
0002
0003
0002
fffc
fffc
0000
fffb
fffb
ffff
fffe
0000
fffe
0005
0003
fffe
0001
fffd
0002
0000
fffb
fffe
fffc
0002
0004
0000
0002
0000
0001
0005
0001
ffff
0001
fffb
fffc
fff9
0001
0000
fffd
0003
0005
fffd
0002
0000
0001
fffd
fffa
0003
fffa
fffd
0003
fffd
fffc
0000
0000
0004
0003
0000
fffc
0004
0004
0001
fffb
ffff
fffb
0003
fffc
0000
fffb
ffff
fffb
0003
fffd
0000
0003
fffd
fffc
0000
0002
0003
fffd
ffff
fffc
fffe
fffe
0001
0000
fffd
ffff
0000
ffff
0002
0002
ffff
0000
0003
0001
ffff
fffd
fffc
fffd
0000
0004
0003
fffd
fffc
0003
fffd
ffff
ffff
fffc
0005
fffd
ffff
0001
fffe
fffd
0003
fffd
0000
fffd
fffd
0004
fffe
0000
0000
0004
0000
ffff
0003
0000
ffff
ffff
0000
0003
0000
fffb
0000
fffb
0002
0000
fffe
ffff
0001
0002
0004
ffff
0000
fffe
fffe
fffc
0004
0000
0001
fffb
0000
fffc
ffff
0001
ffff
0004
ffff
0002
0001
fffe
0001
0004
0000
fffd
0000
fffb
ffff
fffd
0000
fffe
0004
0000
0003
ffff
0003
fffe
0001
ffff
0001
fffd
0000
0002
fffa
0001
fffd
0003
0000
fffc
0002
0002
fffb
ffff
fffe
0000
0000
fffa
0004
0003
0006
0002
0001
fffd
fffe
fffe
fffc
fffa
0002
ffff
fffe
fffd
fffe
fffa
fffe
fffe
fffe
0005
fffe
0000
0002
fffd
ffff
0002
0000
fffb
fffe
fffa
fffd
fffe
0000
0002
fffa
fffb
0001
ffff
ffff
0002
0006
0002
0003
0003
fffe
fffa
ffff
ffff
fffe
0002
fffe
ffff
0001
fffb
ffff
fffb
fffc
0001
0000
0000
fffa
fffa
0003
fffc
0003
fffd
fffa
fffa
0003
fffe
0002
fffd
0002
fff9
0003
fffb
ffff
0003
0001
fffb
0002
0002
fffb
fffa
0001
0002
0001
0001
fffe
0000
0001
0000
0000
ffff
0001
fffd
0001
0000
fffc
fffd
0002
fffa
0000
0000
0003
0001
fffa
0001
0001
0004
fffe
ffff
fffc
0003
fffe
fffb
fffe
fffd
fffa
fffd
fffc
fffb
fffb
fffc
fffd
fffe
0002
fffb
0000
fffa
0000
fffd
fffe
0000
0000
ffff
0000
0000
fffd
fffa
0000
fffb
ffff
fffc
0002
fffe
0001
fffd
0003
0000
fffe
0000
fffc
0003
fffd
fffb
0003
fffc
0003
0002
ffff
0001
0001
ffff
0001
0004
0003
0002
fffc
fffd
fffb
0001
fffe
0003
0002
ffff
ffff
0002
0000
0002
0002
0001
0002
fffa
0001
0000
fffb
fffe
0003
0003
0001
fff9
fffd
0000
0003
ffff
fffc
ffff
fffa
0000
fffb
ffff
fffb
ffff
0000
fffb
0000
0003
0001
0002
fffe
fffc
0004
0002
ffff
fffc
0001
0000
fffa
fffe
0000
0001
0002
ffff
fffd
0001
0003
fffd
0000
0000
fffc
fffd
ffff
fffa
0000
0000
ffff
0003
fffd
fffe
fffd
fffc
0000
0002
fff9
fff9
0003
fffa
0003
ffff
0003
fffc
0003
fffd
fffd
0001
0005
fffd
ffff
0004
0000
fffe
fffd
0003
fffc
0002
0001
0003
fffe
ffff
fffe
fffd
ffff
0000
fffe
fffd
0005
0004
0002
0001
0003
fffd
0000
0004
fffc
0000
fffd
0000
0000
0000
0001
ffff
fffd
ffff
0004
fffc
0000
fffd
fffd
0000
0000
0001
fffb
0003
fffd
fffd
ffff
0000
0004
fffe
fffd
0004
0001
fffe
0001
fffd
0003
0004
ffff
0004
fffc
fffd
fffd
0002
fffb
0002
0001
0002
ffff
fffd
fffe
0000
0000
fffd
0003
0002
0005
0001
fffb
0000
0003
fffe
ffff
fffc
fffc
0004
0005
0001
fffd
0002
0001
0000
fffd
0005
0000
0000
0000
0000
0000
fffe
0000
0005
0000
0000
fffd
0000
0000
fffc
0003
0001
0002
0000
fffb
fffd
0000
0000
0000
fffe
fffe
0000
0001
0003
ffff
ffff
0002
fffc
fffb
0000
0002
0001
fffd
0002
0002
ffff
fffc
fffd
0005
0004
0005
0002
0004
fffd
ffff
0003
fffb
0004
0000
fffd
0002
ffff
0004
0004
0000
fffe
0004
fffc
0004
fffe
0000
0002
0004
0003
ffff
fffe
fffe
fffb
ffff
0001
0001
fffd
fffc
fffb
0001
fffe
ffff
0004
0004
fffc
0003
0000
0003
0000
0002
0004
0001
0004
ffff
fffc
0001
0004
fffe
0001
0000
fffe
ffff
0000
0000
0000
0000
0001
fffb
0000
fffe
fffc
fffd
0001
0000
0005
0005
fffb
0004
fffc
0001
0002
ffff
0002
fffc
0001
fffe
fffb
0005
0000
0004
0000
fffe
fffe
fffb
0003
fffc
ffff
ffff
0002
0000
fffc
fffd
fffe
fffe
fffc
0000
fffb
ffff
0003
0003
fffc
0005
fffe
0003
fffa
0000
fffc
fffc
0001
0001
fffe
0003
0003
0003
0003
fffe
fffd
0000
0004
fffe
0002
0001
0000
0003
0002
fffa
0001
fffa
fffc
fffa
ffff
0000
0000
0000
fffe
fffd
0003
0000
fffe
fffa
0001
fffb
0002
ffff
ffff
fff9
0003
0002
0003
fffc
0003
fffe
0004
0003
fffa
ffff
0000
fffa
0004
fffb
ffff
fffd
0003
fffc
fffc
0001
ffff
0001
0006
fffd
0002
0000
fffa
0002
ffff
0002
fffa
0002
0001
0000
0000
ffff
0005
0004
0000
fffb
ffff
0000
0000
0001
fffe
fffb
0003
0000
0002
fffa
fffc
0000
0006
0006
0004
fffb
0000
ffff
fffd
0000
0002
fffe
fffa
fffa
0005
0006
ffff
0003
0000
0006
0004
0003
fffb
fffa
0000
0002
0000
fffd
0001
fffd
fffe
fffc
ffff
0003
0000
0000
0003
fffa
0000
0000
fffd
0001
fffd
0000
0002
0004
0002
0000
fffd
0003
0001
ffff
0002
0000
0003
fff9
0003
0003
0001
0002
ffff
fffe
ffff
0000
0005
0000
0007
0004
0002
fffa
0000
fffa
fffc
fffa
0004
0000
fffa
fffe
0002
ffff
fffd
0002
0003
0001
0000
0003
0002
fffc
fffd
0001
0003
fffe
fffb
fffa
0000
0002
0002
0001
ffff
0004
fffb
0002
ffff
0000
fffd
0000
0000
0003
0002
fffe
0002
0001
fff9
0005
0007
0004
fffc
0003
0002
0000
fffa
fffe
fffe
0000
0002
fffc
fffb
0000
fffd
0001
ffff
ffff
fffc
0003
ffff
0000
fffd
fffc
0003
fffd
0002
0001
0002
0001
0002
fffe
fffd
0000
0000
0002
fffc
0000
0000
fff9
ffff
0000
0003
ffff
fffc
0000
0001
0003
ffff
0000
0002
fffa
0002
0003
0003
0003
0003
0000
0004
fffb
fffc
fffb
fffb
0001
ffff
fffe
fffb
ffff
fffa
fffb
0000
ffff
0000
fffc
ffff
0002
fffe
fffe
ffff
0002
ffff
0001
fffc
fffb
0002
ffff
0002
fffe
fffe
0002
0003
fffa
fffa
ffff
fffc
fffe
0001
0001
0000
fffa
0001
0002
0000
fffd
fffc
fffd
0002
0001
0000
fffd
fffb
0000
fffa
0000
fffc
0002
0002
0003
ffff
fffd
fffe
fffc
0000
fff9
ffff
0000
fffc
fffb
fffc
ffff
fffe
ffff
fffb
fffb
0002
ffff
fffa
fffc
ffff
fffe
0002
fffd
fffb
fffa
fffe
0000
fffe
0000
0000
0003
fffc
ffff
fffd
0001
0000
0003
fffe
0000
fff9
0000
0002
0003
fffc
ffff
0002
fffe
fffe
fffd
0001
fffc
0000
ffff
0001
fffa
0003
fffb
fffd
0000
fffb
ffff
0000
fffa
fffa
fffc
fffb
ffff
fffa
fffe
0000
fffb
ffff
fffe
0003
0000
0000
fffa
0001
fffe
ffff
0000
fffb
0002
fffb
fffb
fffc
fffd
fffd
0002
0000
0001
fffa
fffb
0000
0001
fffc
fff9
0002
fffd
fffe
fffd
ffff
0001
fffb
fffa
ffff
fffa
0003
fffe
fffe
0002
0000
0000
ffff
0000
fffb
fffa
fffb
0002
0000
0001
0000
0003
fffc
0000
fffa
0000
fffa
fffd
fffd
fffa
0001
fffc
fffb
0003
fffd
0003
ffff
0002
fffa
0000
0002
fff9
0000
0000
0000
0001
fffc
fffb
fffd
fffd
0000
0002
0000
0000
ffff
0001
fffb
ffff
0000
0002
ffff
ffff
fffe
fffd
fffc
fffb
0002
fff9
fffb
fff9
fffa
fffc
0004
fffb
fffe
fffc
0005
fffd
ffff
0004
0002
ffff
0000
fffe
fffd
ffff
0000
fffd
0002
0000
0000
0000
0000
fffe
fffd
0004
0000
0005
0001
0004
fffe
0004
ffff
0002
fffc
0002
fffe
fffe
0004
0005
0003
ffff
0000
fffe
0003
fffe
fffc
ffff
0000
0002
0004
0002
0001
0003
fffe
fffb
0003
0004
fffe
fffc
0000
fffe
fffa
0002
fffd
fffa
0000
0000
ffff
fffe
0003
0001
0001
fffb
fffc
0001
0005
0000
ffff
0001
fffd
fffe
0000
0000
fffe
fffd
0005
fffd
0005
ffff
ffff
0004
fffc
0002
fffd
0005
0001
0003
0005
0000
0005
0003
0000
0003
0000
fffd
fffc
fffd
fffd
0000
ffff
fffc
ffff
0003
0000
0000
0004
fffc
0000
0000
0000
fffd
0003
0003
ffff
fffe
0000
0000
ffff
fffd
0000
0000
0003
0003
0004
0001
fffe
fffd
fffe
0004
0000
0000
ffff
0002
0000
0003
0004
0000
ffff
0001
fffd
ffff
fffc
0002
0003
0001
0000
0004
0004
0004
fffc
0005
0003
0003
fffd
0001
fffe
0001
fffb
0000
0000
0000
0000
0004
fffb
0004
0004
0004
ffff
0001
fffc
0000
ffff
0004
fffd
ffff
fffe
fffe
0000
0002
fffd
0000
0005
0005
0002
0000
fffd
fffd
0003
0000
fffd
0000
0000
0003
fffd
0003
fffc
0000
0003
0000
fffb
0000
0003
0002
0001
0000
0002
fffb
0000
0004
0003
0004
ffff
fffd
0000
0002
0004
0000
fffe
0002
0002
0002
0000
fffc
0000
0003
0000
0003
0001
0001
fffc
0002
fffb
fffb
0003
0001
fffe
0004
0002
0001
fffd
fffe
0000
fffe
fffc
0000
0004
0001
fffd
0000
fffd
0003
fffe
fffd
0000
fffc
fffd
0005
0004
0003
fffc
fffc
0004
0005
0004
0000
0002
0001
fffe
0000
0001
0004
0005
fffd
0003
0000
fffc
0003
fffc
0004
0001
fffd
fffd
0005
fffc
0000
fffb
fffd
ffff
0001
0002
0004
ffff
0003
fffb
0003
fffc
0000
0004
fffc
0004
0004
ffff
0004
fffb
0000
ffff
0005
0003
0001
fffd
0000
0005
fffb
fffd
0004
0001
0000
0001
0005
fffc
0002
0000
0004
ffff
0001
0001
0005
ffff
0001
0002
0000
fffd
0003
0001
0005
0000
0003
0003
fffd
0002
0001
0004
0005
0002
fffe
0002
0003
0000
0000
0004
0002
fffc
fffb
fffd
fffb
0002
0003
0003
fffe
ffff
0003
fffe
fffd
0004
0001
0004
0000
0002
0001
fffc
fffe
0005
0000
0002
fffc
0003
fffb
0000
0000
fffd
0002
fffd
0004
fffe
fffc
0003
fffd
0002
ffff
fffd
0003
0004
fffd
ffff
0003
fffe
fffc
0002
0000
0000
0000
fffb
fffc
0001
fffe
0000
ffff
0000
fffe
fffb
0004
0000
0004
0001
fffe
0002
fffb
0004
0003
0000
0002
0001
fffe
0000
0000
fffd
fffb
0000
fffb
ffff
0003
0000
fffe
0003
fffb
fffd
0000
fffb
0003
ffff
0002
fffb
0005
fffd
fffc
0003
ffff
fffd
0003
0000
0000
fffb
0005
0000
0004
fffb
0003
0005
0000
fffc
ffff
0000
0000
0000
ffff
fffc
0002
fffb
0005
fffb
0003
0003
fffd
0000
0004
fffb
ffff
0004
fffd
fffe
fffe
0000
fffc
0002
0004
ffff
fffb
0001
0005
ffff
fffc
ffff
fffe
fffd
ffff
0001
0005
fffc
fffd
0003
0002
0001
0000
0001
0002
fffc
fffb
fffe
0004
0002
0005
0002
fffc
fffc
0002
ffff
0001
0000
fffd
fffd
0000
0002
0004
0004
0003
0004
fffe
0003
0003
0002
fffd
0000
0000
0004
fffc
0000
ffff
fffe
0001
0002
0000
ffff
0003
fffb
fffb
0002
fffd
0005
0000
ffff
fffb
0000
fffd
fffc
0002
0000
fffc
0001
fffe
fffd
fffe
fffd
0002
ffff
fffd
fffc
fffe
fffe
fffc
0002
0000
0004
0001
0003
fffe
fffd
0001
fffc
fffd
fffb
ffff
0001
0005
0000
fffd
0000
0000
ffff
0004
0000
0005
0003
0000
0000
0002
0002
fffb
0000
0004
0004
0000
0000
0002
0005
0002
0000
fffc
0000
0001
ffff
fffd
0001
fffe
fffc
0005
0001
fffc
fffb
fffb
0001
fffb
0000
fffb
fffe
fffc
0002
fffe
0000
0004
0002
0000
0004
fffc
0001
0001
fffb
0004
0003
0000
ffff
0004
ffff
0005
ffff
0000
fffc
0000
0002
0001
0001
0001
0001
fffd
0000
fffd
fffb
fffb
0004
fffc
0002
0003
0003
0000
fffe
0002
0002
fffb
0000
0001
fffd
fffc
0005
0005
0004
ffff
fffb
fffd
0001
0000
fffb
fffd
0003
0003
0003
0000
ffff
fffd
0004
0005
ffff
0003
fffc
fffd
0000
0002
0001
fffc
0005
0000
fffd
fffb
0001
0002
ffff
fffd
fffd
0000
0000
ffff
0002
0002
0002
fffd
fffe
fffc
0005
ffff
0000
fffe
0004
fffd
0002
fffe
0001
0002
ffff
fffe
0000
0004
0001
fffb
0001
fffc
0001
0001
fffd
0002
0002
fffd
ffff
fffd
0000
ffff
fffc
ffff
0002
fffe
fffd
0001
0003
0002
0000
0000
0002
0000
fffd
0001
0000
fffd
0005
fffc
0002
fffe
fffc
0000
fffe
0002
fffd
0002
0002
0000
0004
0001
0000
0000
0000
0000
0000
0003
0003
0003
fffd
0000
0003
0000
0000
0002
0003
ffff
fffb
fffe
fffd
0004
0001
fffe
0001
fffd
0003
0000
fffb
fffd
0005
0001
ffff
0002
fffd
0000
ffff
fffb
fffe
fffc
0003
0001
ffff
ffff
0001
fffe
ffff
0004
0004
fffd
fffe
0000
0005
fffc
0000
0002
ffff
ffff
fffb
fffd
0000
0005
0005
ffff
0002
fffe
fffc
fffe
0000
0000
0002
fffd
0000
0000
0000
0005
fffd
fffb
0000
0001
0001
0001
0001
0003
0000
fffe
0003
ffff
0001
0003
0003
0001
ffff
0000
0003
0000
fffe
fffe
fffd
fffc
0003
fffe
fffe
0000
0000
fffd
0002
0004
0000
fffd
fffb
fffd
0002
0002
fffb
0005
0005
fffe
fffc
fffb
fffb
ffff
fffb
0000
fffb
fffd
0000
fffb
fffc
0004
ffff
0000
fffd
ffff
ffff
0003
fffe
0002
fffc
ffff
0004
ffff
0000
fffc
0000
ffff
0001
ffff
fffc
0002
0003
fffb
0000
fffd
fffb
0003
fffe
0000
fffc
0003
0001
0001
fffb
0002
0000
0005
fffd
0000
0002
0002
0001
0004
0004
0003
ffff
0000
ffff
0000
0002
0000
0003
fffc
fffe
0001
fffc
0005
fffe
0001
0002
0002
fffb
0000
fffc
0004
0000
fffd
fffb
fffd
0001
fffc
fffe
fffb
fffb
fffb
0001
0004
0001
0004
fffe
fffb
0000
0000
0000
0005
fffb
ffff
0000
ffff
fffd
0000
ffff
0003
0000
0004
fffe
0000
0003
0002
0005
0000
0005
fffd
fffd
0003
0005
fffe
ffff
0001
fffb
0001
0005
fffc
fffe
fffd
0000
0005
0001
0002
0004
0000
0004
fffd
0003
fffe
ffff
fffd
0003
fffb
0002
fffc
0005
0005
fffd
0002
fffd
0005
0004
ffff
fffd
0005
0003
0002
ffff
fffc
0005
fffc
fffe
0003
0000
0004
fffd
0002
0003
fffc
fffe
ffff
fffe
0001
0001
0001
0004
0001
fffd
fffd
0001
fffd
fffd
0002
0000
fffd
0005
0003
0001
0002
ffff
fffd
0003
0002
fffe
0000
ffff
0004
0005
fffe
0005
0005
fffb
ffff
0003
fffc
0002
0000
fffe
fffc
fffd
0003
fffb
fffb
ffff
0001
0002
0000
0000
ffff
fffd
0005
fffe
fffe
0002
fffb
0000
0002
0001
0003
0005
fffe
fffd
0005
0001
0001
0001
fffd
fffb
0005
0000
fffc
0000
0003
0002
0003
0003
0000
0004
0003
fffe
fffb
ffff
fffb
0000
0004
fffe
0002
0005
ffff
0003
fffb
fffd
0004
0004
fffb
0000
0003
0001
0002
0001
ffff
fffc
fffe
fffd
fffb
0000
fffb
fffc
0000
0002
0002
0002
0000
ffff
0001
0003
ffff
fffd
fffb
0002
0004
fffc
0000
0001
0004
0001
0002
0001
fffe
0000
0000
0002
fffb
ffff
0003
0003
0001
0001
0000
0004
0000
0004
0005
fffe
0001
fffd
0003
fffc
fffc
0000
0003
0000
fffc
0002
fffb
0004
0005
0001
fffb
0000
0001
fffb
fffe
fffc
0002
0003
0003
ffff
0001
fffd
ffff
0004
0003
fffd
fffe
0000
0004
0000
fffd
fffb
fffd
0000
0004
fffc
fffb
ffff
0003
fffe
0000
fffd
0000
0001
fffe
0004
fffe
0002
fffc
ffff
ffff
fffd
fffd
0003
0003
ffff
fffe
0003
0004
ffff
0001
0000
fffb
0002
ffff
0000
0004
0000
0003
0003
0003
fffe
0000
0000
ffff
fffe
fffc
fffc
0000
fffe
0000
0000
fffc
0002
fffb
0001
fffc
0001
fffc
ffff
ffff
fffc
fffd
ffff
ffff
fffc
0005
0000
ffff
0001
0000
fffe
ffff
0000
0001
fffc
fffd
0000
fffe
fffc
0005
fffd
ffff
0000
fffb
0000
fffc
0001
0003
0004
0000
fffb
fffc
fffd
fffd
0003
0000
fffe
fffe
0001
fffe
ffff
fffc
ffff
fffc
fffe
fffe
fffc
0002
0001
0000
0001
fffd
fffc
0001
0005
0004
0002
0004
0003
0000
fffe
0001
fffd
fffb
fffe
fffd
fffb
0000
fffb
ffff
0005
fffc
0000
0003
0000
fffd
fffd
fffe
fffc
0003
0004
0000
0004
fffd
fffd
ffff
fffc
ffff
0001
fffb
0001
fffe
0000
0000
fffc
0002
0002
0005
fffc
0000
0000
fffc
fffb
0003
0004
fffd
0002
0003
fffd
0000
ffff
0000
0004
fffd
0005
0000
fffd
0000
0004
0002
0004
0004
fffc
fffd
0002
fffe
ffff
0001
0001
fffc
0003
0001
0003
fffd
0005
ffff
fffc
0003
0000
fffd
fffd
0005
0005
0000
fffb
0001
ffff
0003
0003
fffe
fffb
ffff
fffe
fffd
0002
0000
0000
0001
fffc
0000
0004
fffe
0005
fffc
ffff
fffb
0003
ffff
0002
0002
0000
fffe
fffc
0001
fffe
ffff
fffd
ffff
0004
0005
0000
0003
fffe
ffff
fffb
0004
0002
0000
0004
ffff
0005
fffc
0000
ffff
0000
fffe
fffd
0001
0003
0005
0003
fffd
fffd
ffff
fffe
0002
fffc
0005
fffc
0002
0000
0003
fffb
ffff
0000
0000
0003
fffd
0003
0000
0001
0002
0001
0002
fffc
fffd
0000
fffd
fffd
0003
0001
0003
0004
fffe
0003
0003
ffff
0000
fffc
fffe
fffe
0002
0000
0000
0000
ffff
fffc
0001
0000
0003
0000
0000
0003
fffe
0002
0000
0003
fffc
0002
0001
0004
0002
0002
0005
0002
fffe
fffb
fffe
fffe
0003
fffc
fffe
fffd
0004
ffff
ffff
fffe
fffe
0004
fffc
fffd
0001
fffb
0000
0001
fffe
ffff
fffc
ffff
0000
0002
0000
0002
0000
fffe
0000
0002
fffd
0004
0002
0003
ffff
0002
0005
fffe
0001
0002
fffc
0005
fffe
0004
0000
0003
0000
0000
ffff
0003
fffd
0004
ffff
ffff
0001
0005
0000
0000
fffd
0003
0004
0004
0004
0003
0005
ffff
0001
fffe
fffd
0000
fffe
0001
0004
fffe
0004
0000
ffff
fffb
fffe
0001
fffc
fffe
0000
fffe
ffff
ffff
0000
0000
ffff
0004
0002
0003
0000
0000
0001
ffff
0004
0000
fffe
0001
0004
0003
fffd
fffd
0003
fffb
0001
0000
fffc
0000
0004
0004
fffc
fffd
0002
fffb
fffb
fffd
0005
fffb
0001
0000
fffb
0001
fffd
0000
ffff
0005
0001
fffd
ffff
0002
0001
fffe
ffff
fffb
fffc
0002
0000
fffb
fffb
fffc
0000
0004
fffd
fffc
fffb
ffff
0004
fffc
fffb
ffff
0001
0002
fffc
0001
fffd
0002
0001
fffb
0000
fffd
0000
ffff
0005
0005
fffb
fffe
0000
0000
0002
fffe
0003
0003
0000
fffb
0002
fffd
fffc
0003
fffd
0002
ffff
fffe
fffc
0000
0001
0000
0005
0001
0000
fffb
0004
0003
0001
fffc
0001
fffb
0004
0000
0004
fffd
fffe
fffc
0003
fffe
0000
0001
fffd
0003
fffc
ffff
0004
fffe
fffd
fffe
0001
ffff
0001
0000
fffe
fffe
fffc
0004
0002
fffd
0003
0001
fffe
0004
0005
fffe
fffc
fffd
0004
0000
ffff
0005
fffb
0001
fffb
0001
0002
0000
0005
fffd
fffc
0000
0002
fffe
0002
0004
ffff
0001
ffff
ffff
ffff
ffff
0000
ffff
ffff
0004
0004
0005
ffff
0000
0004
0000
fffb
fffb
0001
0001
fffb
0004
fffe
fffd
0003
0001
0003
ffff
fffd
fffd
0000
0001
ffff
0001
fffe
ffff
0000
0000
fffc
0003
0002
0000
fffd
ffff
0004
0003
0003
fffb
0005
0001
fffc
0001
fffb
0000
0000
fffd
0003
0002
fffe
0000
0005
0004
ffff
fffc
0000
0000
fffd
fffc
0000
fffe
fffb
fffc
fffc
ffff
0000
fffe
0003
0002
0002
ffff
0003
fffd
fffd
fffe
fffe
0000
0005
fffc
0004
0000
ffff
0002
0004
0000
0002
0001
fffe
fffc
0000
0001
fffe
0004
0002
fffe
0000
fffd
fffd
0000
ffff
ffff
fffd
0004
0000
0002
0000
fffd
fffd
0001
0003
0001
0000
0000
0000
0000
0000
0001
0005
0000
0000
0000
fffd
ffff
0003
fffc
fffd
0001
fffd
0002
0000
0004
0002
0001
0000
fffe
0003
0004
fffe
0000
ffff
fffd
fffb
0003
0001
ffff
fffc
fffb
0000
fffb
0002
0003
fffb
0003
fffb
0000
fffe
0004
fffd
fffb
0003
0000
0003
0000
0005
0000
fffc
0000
0000
0005
0004
fffb
fffe
0005
fffe
0003
0000
0000
0005
0000
0003
0000
ffff
0003
0000
0004
fffd
fffb
ffff
fffc
fffb
0002
0002
ffff
fffe
0000
fffd
0000
0001
ffff
fffb
fffe
0001
0004
ffff
ffff
0000
0001
0000
0003
0004
0000
fffc
fffd
0000
0000
0003
0000
0003
0000
0002
0000
0003
0002
0002
fffe
fffe
0004
fffb
0000
0002
0005
fffe
0001
fffc
0003
0000
0004
0003
0002
0003
fffd
0000
0005
0000
fffe
0003
0005
0000
0003
0004
fffd
0000
fffc
0000
0000
0002
0001
fffc
fffc
fffb
0004
fffb
fffb
fffe
fffc
fffe
fffd
0001
0004
0002
0000
0000
0002
0005
fffc
fffd
0001
ffff
0001
0000
fffe
fffe
ffff
fffc
fffb
0002
ffff
0003
ffff
0005
0000
0000
0004
0001
0002
0004
fffe
fffe
0001
0005
fffb
fffd
0002
0003
0000
0003
0000
0001
fffc
ffff
fffe
0005
0001
fffe
0000
ffff
fffe
0000
ffff
0000
0004
0000
0000
0002
fffc
fffe
0000
fffb
ffff
0002
0000
0001
fffe
fffb
0003
fffe
fffc
fffe
0003
0004
fffe
0003
0004
0004
0002
0000
0003
fffe
fffe
fffb
fffd
0003
ffff
fffc
0000
0000
0001
ffff
fffe
0000
0004
fffc
0003
0004
0001
0002
0001
fffe
fffd
fffe
0004
0000
ffff
0004
0001
0001
0000
ffff
0005
0000
0002
0000
fffe
0004
0000
fffc
0004
0002
0005
0004
ffff
0004
fffe
ffff
0000
0003
0000
0000
0004
ffff
0002
fffc
fffd
fffc
fffe
0005
0004
0000
0002
0002
fffd
fffd
0000
fffc
0001
fffd
0004
0000
fffe
fffb
ffff
0002
0001
ffff
0004
0003
0004
ffff
fffe
0002
0000
0004
0004
0005
0000
ffff
ffff
0004
ffff
fffc
0004
0000
0003
0002
ffff
fffb
0000
fffd
fffe
0005
fffe
0004
0000
0000
0004
fffd
fffe
fffb
fffb
0005
0003
fffb
0001
0003
fffb
fffd
0000
0000
0000
0002
0001
0001
fffa
fffa
fffa
ffff
fffa
0000
fffc
fffb
0003
fffc
fffa
fffc
fffe
fffd
ffff
fffb
fffa
ffff
0001
fffe
0000
fffd
0003
fffd
0000
0002
0004
0003
0000
fff9
0000
fffa
fffd
fffa
fffd
fffa
0002
0001
fffa
fffc
ffff
fffe
0003
0005
ffff
0000
0000
fffe
fffe
fffd
0000
0000
0001
fffc
fffa
fffb
fffd
fffc
fffd
ffff
0001
fffe
0000
0001
fffe
ffff
fffe
fffa
ffff
fffd
fffd
fffc
0000
fffb
fffc
0000
fffd
fffc
fffe
fffd
0000
fffd
fffe
0003
0000
0002
fffd
fffd
0002
0003
fffa
0001
fffd
ffff
fffd
ffff
fffa
0001
fffb
fffb
fffc
fffe
fffe
0001
fffe
0005
0003
0005
0002
0002
0003
0003
fffb
0003
fffc
ffff
fffe
ffff
fffa
fffb
fffd
fffb
fffd
fffd
0000
0001
ffff
0000
0003
fffc
0002
ffff
fffb
0002
0002
0002
0000
0000
0000
0000
0000
0003
fffb
fffe
ffff
ffff
fffd
ffff
0001
fffa
ffff
0001
fff9
fffd
0001
0003
0000
ffff
0003
fffb
fffd
ffff
fffe
fffc
0000
0000
0003
0003
fffd
0003
fffd
fff9
ffff
fffd
ffff
0003
0003
fffd
0001
0001
fffb
0000
0001
ffff
0004
fffe
fffd
fffd
fff9
0005
ffff
0001
0003
fffe
0002
0001
0000
fffa
ffff
fffb
fffb
0002
fffe
0002
0001
0001
fffc
fffb
fffb
0000
fffb
0003
0000
fffa
0000
0002
fffc
0003
fffe
0000
0000
fffd
ffff
ffff
fffc
fffe
0000
0000
fffb
fffd
0003
0002
fffc
0000
ffff
0000
fffa
fffe
0000
fffe
0003
0003
0002
ffff
fffc
fffb
0000
0000
0004
0002
0005
0000
0002
fffb
fffb
0001
fffa
0000
fffb
0000
fffa
0001
fffb
0000
0000
0003
0000
0003
0001
fffe
fff9
fffd
fffe
ffff
0001
ffff
fffc
fffc
0000
fffc
fffa
fffa
fffc
fffe
0000
fffc
0003
fffb
0003
fffd
fffb
fffe
fffe
0002
fffb
0000
fffd
fffe
0001
fffe
fffe
0000
fffc
0000
0001
0000
0000
fffe
fffb
fffe
fffc
fffe
fffa
0001
0000
ffff
0000
0000
fffc
0000
fffb
ffff
0000
0000
fffd
0000
0002
fff9
fffa
0002
fffe
fffb
fffd
fffa
fffa
fff9
fffc
fffb
0000
0000
fffc
ffff
fff9
fffe
fffa
0000
fffc
fffa
0001
fffc
0000
0000
0000
ffff
fffd
0000
fffc
0001
fffc
fffa
0002
fffb
0000
0003
0001
0002
0002
fffe
0002
fffd
ffff
0000
fffc
ffff
fffa
0002
0002
0000
ffff
fffd
0001
0002
0001
fffe
fffb
0003
fffa
0001
fffe
fffb
0001
fffc
0000
0001
ffff
fff9
fffc
fffe
fffe
0000
fffe
fffa
fffb
fffb
fffd
0001
0003
fffe
0002
fffe
0001
fffd
fff9
fffa
0000
fff9
0001
0003
fff9
0001
fffd
0000
0001
0003
0003
0000
0001
0002
fffb
0001
fffd
fffa
0001
fffd
fffd
fffe
fffa
0000
fffd
fff9
0003
fffb
fffb
ffff
fffc
fffc
0001
fffd
0002
0000
0001
0000
0001
fffc
fffe
ffff
fffb
0003
0000
fffe
fffc
0002
0003
fffe
0000
fffc
fffa
0002
fffc
fffd
fffe
ffff
0000
fffc
0000
fffc
fffa
0001
0000
0000
0000
fffd
0002
0001
0000
fffc
fffb
0000
fffd
0000
fffe
0000
fffc
0001
0002
ffff
fffa
fffb
0003
fffe
fffe
fffb
0000
fffc
0003
fffc
fff9
fffe
fffd
fffb
ffff
0000
0003
0000
fffc
0005
fffa
fffb
fffe
fffa
0001
fffa
0000
0002
0000
ffff
0003
0000
ffff
0004
0001
fffb
fffe
0000
fffe
0000
fffe
ffff
fff9
ffff
0001
0003
fffe
fffc
fffd
0000
0000
0000
0001
fffc
fffc
fffd
0000
fffa
0000
fffa
fffe
fffa
ffff
fffb
fffb
fffd
fffd
fffd
0004
0002
ffff
fffd
fffc
fffe
fffe
fffe
0002
0003
fffd
0002
fffb
0001
fffc
fffb
0002
ffff
fffd
fffb
fffe
ffff
fffe
fffd
0000
0000
fffe
0001
0000
0001
0002
0004
0002
fffa
fffb
0000
0002
fffc
0003
fffa
0003
0000
fffd
0002
fffa
fffd
0004
fffe
fffd
fffa
fffa
fffd
0001
fffa
fffd
fffa
fffc
fffa
fffc
fffd
ffff
fffd
fffe
0003
fffb
0000
0001
fff9
0000
0001
fffa
0000
0000
0000
fffb
0002
fffe
0000
ffff
fffe
0000
0002
0002
fffe
fffa
0001
fffc
fffb
fffa
fffa
0000
0000
0003
0003
fffe
fffe
0001
fffd
fffb
fffe
fffe
0000
fffa
0000
ffff
0003
fffc
0004
0002
fffa
0000
0000
0000
fffa
fffd
0001
0001
fffd
0002
0005
fffb
0000
fffd
ffff
fffb
0003
fffe
fffc
0002
fffd
0002
0000
0000
ffff
0003
0001
0000
fffd
0001
ffff
0000
fffa
ffff
0001
0003
0003
0001
0003
fffe
0000
fffe
0002
0000
0000
fffb
fffb
fffd
0000
0000
fffe
0000
0000
0003
0002
fffa
0002
0001
fffa
0003
0000
ffff
fffc
0004
ffff
fffb
0001
fffb
ffff
0001
0005
fffb
fffd
0002
0002
0000
fffd
0001
0001
fffb
0000
0001
fffe
0003
ffff
fffd
0004
0000
0000
0004
fffe
0000
0001
fffc
fffc
ffff
fffc
fffa
0001
0000
0000
0000
fffc
ffff
fffd
0004
fffd
fffb
fffe
fffe
fffb
fff9
fffe
fffb
0004
fff9
0000
0003
fffd
ffff
fffb
0000
0004
0004
fffc
fffc
fffa
0003
0001
ffff
ffff
fffa
0001
0000
0001
0000
fffd
0000
fffe
0001
0001
ffff
0000
0000
0003
fffb
0004
0000
0002
fffa
fffb
ffff
0004
0001
0000
0000
fffb
fffe
fffc
0002
0001
0002
fffd
fffe
0002
fffa
ffff
0005
0004
fffd
ffff
0003
fffd
fffd
0001
0001
fffd
0003
fffd
fffa
fffa
ffff
0001
0003
0000
0003
0000
fffc
fffc
fffa
0002
0003
0002
0002
ffff
fffd
fffb
fffd
ffff
0002
0001
fffe
0003
0001
0000
fffa
0000
ffff
fffa
0002
0000
0002
0000
ffff
0005
0000
0000
0001
fffc
fffe
0002
fffa
fffe
fffc
fffd
fffd
0000
ffff
fffc
fffe
fffe
0000
ffff
0005
fffc
0000
ffff
fffb
0001
0001
0000
fffc
fffe
ffff
0002
0002
0003
0001
fffc
0000
0005
fffd
fffe
0002
0000
0002
fffb
0000
fff9
fffa
0000
0000
fffa
0000
0001
fffc
fffe
fffe
0003
fffc
fffc
fffb
fffd
ffff
fffa
0001
0000
0000
fffe
0002
ffff
0000
fffb
ffff
0002
fffb
0000
fffc
0001
fffb
0002
0001
fffc
fffe
fffa
0002
0000
0002
fffd
0003
0003
0003
0002
0001
fffc
ffff
fffe
fffe
fffa
0000
0000
0000
fffc
fffe
0002
0002
0003
fffa
fffb
fffd
0000
fffa
fffd
fffc
0002
0003
fffe
0004
fffd
fff9
fffb
fffc
0002
fffd
ffff
ffff
0002
0000
ffff
0001
0003
fffc
0004
fffc
0001
0003
ffff
ffff
0001
fffa
fffa
0000
0005
ffff
ffff
0005
fffa
0000
0001
fffa
0000
0000
fffd
fffe
0002
fffb
fffd
0002
0000
fffe
fffe
0004
fffb
0004
fffa
ffff
0002
fffc
0000
0002
0005
0001
fffd
0004
0001
0000
0004
0002
fffe
fffe
0000
0000
0000
fffe
fffc
fffc
fffc
fffb
fffc
0000
fffc
0002
0004
ffff
0002
ffff
fffd
fffb
fffa
ffff
fffe
0000
fffe
0002
fffb
0001
ffff
0002
0005
fffe
0004
fffb
fffb
0003
0003
fffb
fffb
0003
0001
0001
0000
0004
0000
ffff
0003
fffb
ffff
0001
ffff
fffe
0000
0000
fffa
0002
0003
ffff
fffe
0000
0004
fffc
ffff
0005
0003
0000
fffe
fffd
fff9
fffb
ffff
fffe
0002
fffd
0000
fffc
fffc
0003
0000
0001
0004
fffc
0004
0000
ffff
0003
fffb
fffd
fffc
0000
fffd
0000
fffd
0005
fffb
fffe
fffe
0002
0002
0000
0000
0001
0000
0000
0002
0002
fffc
0001
ffff
0001
fffc
0002
fffc
fffe
fffe
ffff
ffff
fffe
ffff
fffe
fffe
fffb
0004
0004
ffff
0000
0000
0003
ffff
fffc
0000
0003
fffb
fffe
fffb
0002
fffb
ffff
0004
0000
0000
0004
0004
0004
fffc
ffff
0002
0002
0005
fffe
0000
0001
ffff
0002
0004
0000
0001
0000
fffe
0003
0000
fffb
fff9
0001
0002
fffe
fffc
0002
0002
0000
0000
0002
0002
0000
0002
0001
0002
fffc
0002
0002
0002
0003
0000
0005
0001
0000
fffe
0000
0001
0001
fffb
0002
fffc
fffd
0000
0001
0001
fffc
0000
0000
0000
fffe
0001
fffa
0000
0002
ffff
0001
fffd
fffc
0004
fffb
0005
0000
ffff
0003
ffff
0002
0000
0003
0000
fffb
fffd
fffb
0003
fffe
fffc
fffd
0001
0000
0000
0005
0000
0003
0001
0000
ffff
fffb
ffff
fffa
0001
fffc
fffe
0003
0003
0001
0005
0002
0000
fffd
ffff
fffb
fffb
fffa
ffff
fffe
0001
0002
0000
0005
0002
fffe
fffd
0001
fffc
ffff
fffc
fffb
0000
fffb
fffb
0000
0002
0002
0003
fffd
0000
fffb
fffe
0001
0001
0003
fffa
fffa
fffe
fffd
ffff
fffc
fffe
fffd
fffc
0000
0005
fffd
0000
0000
fffe
0002
fffb
fffd
fffe
0000
fffb
fffc
fffc
0001
0003
fffc
0000
fffd
fffc
fffc
fffc
0000
ffff
fff9
0001
0003
0002
fffc
0003
0000
fffa
0004
0002
0002
0004
0005
fffb
fffb
0002
fffd
0001
fffe
fffe
0002
fffa
fffb
0002
fffb
0005
0000
0004
0002
0004
0003
fffd
fffe
fffe
fffa
fffe
0003
fffa
fffd
fffb
fffa
0000
0001
fffd
0000
0002
fffc
0001
fffe
ffff
fffc
fffc
fffa
fff9
fffb
0002
fffc
fffd
fffa
0000
fffb
ffff
fffe
0000
0003
fffe
0002
fffc
fffd
ffff
fffd
ffff
0003
0000
fffd
fffd
0000
fffd
0001
0000
0000
fffb
fffc
0000
0003
fff9
0000
fffb
ffff
fffc
fffb
0003
fffc
0000
fffc
fffd
fffa
0002
fffa
0000
0003
0003
fffd
fff9
0003
0001
0001
0001
fffe
fffd
0003
0000
fffd
fffb
0000
0001
fffc
0003
0001
0002
fffb
0001
0000
fff9
0003
0000
ffff
fffe
fffb
0003
fffd
0000
fffe
0000
ffff
0003
0001
0005
fffd
0001
fffe
fffd
fffe
0002
0000
fffd
fffe
0000
0000
ffff
ffff
0000
fffb
0000
0000
0001
ffff
0003
fffb
0000
fffb
fffd
0003
fffd
0002
0000
ffff
fffd
0000
fffc
0000
fffc
fffa
ffff
fffc
fffa
ffff
0000
fffa
0000
fffb
fffb
0000
0003
0001
fffd
ffff
0000
ffff
0000
0002
0002
fffc
fffd
ffff
0000
0002
0002
fffb
ffff
0000
0001
0000
0001
0003
0002
fffe
0000
ffff
fffa
fffc
fffd
0000
0002
fffc
fffc
fffa
0003
fffd
0000
0001
0001
0001
0003
fffc
ffff
fffd
0000
0000
0001
ffff
fffd
0003
0001
0002
0003
0000
0003
0000
0000
fff9
0001
0000
0003
fffa
fffe
fffa
fffc
fffc
fffb
fffe
fffb
0003
fffa
fffe
fffc
ffff
fffb
0001
0001
0002
0000
0002
ffff
0001
fffb
fffc
fffd
fffd
0002
fffd
0000
0000
fffa
0000
fffa
fffc
0003
fffb
ffff
fffe
0002
fffd
0003
fffe
ffff
0000
fffc
0000
0000
fffd
0003
0000
0001
fffa
fffc
fffb
fffa
0001
fffc
fffe
fffa
0000
0003
0000
0003
fffc
fffe
fffb
fffb
fffa
fffe
0001
0001
0002
0000
fffa
fffa
fffb
0000
0000
fffd
0000
ffff
fffd
0000
0000
fffc
fffc
fffc
0003
0000
fffa
0000
0002
fffa
0001
0000
0003
fffb
0000
0000
fffa
fffe
fffc
0000
0001
fffa
ffff
fffd
0001
0002
fffd
0000
fffa
0000
0002
0003
0002
0000
fffe
0000
0002
fffb
fffa
ffff
0001
0000
ffff
0000
0000
fffc
0001
0002
fffe
fffc
fffd
0001
fffb
ffff
0000
fff9
0000
0002
0002
fffd
0003
0001
0000
0000
fff9
0002
0002
0000
0002
0002
fffb
fffd
ffff
0000
fffc
fff9
0003
0000
0000
0002
fffa
fffb
fffc
fffb
0002
0003
fffc
fffe
fffb
0001
0003
0003
fffe
0004
0004
0000
ffff
ffff
fffe
fffa
0002
0000
fffa
0002
ffff
fffa
0001
0004
0001
0002
fffd
fffd
0000
0001
fffa
0002
0003
fffb
0003
0000
ffff
0000
ffff
0002
0004
0004
0000
0002
0000
0000
0000
fffc
fffc
fffe
ffff
0000
fffa
fffd
0000
0002
fffd
0003
fffd
fffa
0003
fffd
0000
fffb
0003
0002
0000
0002
0001
0000
fffb
0001
0004
0000
ffff
fffb
0001
fffa
fffd
0000
fffa
fffb
fffb
fffe
0000
0003
0002
fffd
ffff
0004
0000
fffc
fffb
fffb
fffa
0003
fffa
fffb
0002
fffe
0000
0001
fffb
fffd
0005
fffd
0001
0000
fffb
fffb
0000
fffa
fffd
fffa
fffb
fffb
0002
0003
0003
fffe
0004
fffc
fffe
fffe
fffd
fffe
fffb
fffa
0001
fffb
0001
fff9
0000
0005
0002
0003
ffff
fffe
0000
fff9
fffc
0003
ffff
fffc
0000
0000
ffff
ffff
fffd
0000
0000
0005
fffb
ffff
fffc
0001
ffff
fffe
fffe
fffb
0005
fffb
fffc
ffff
fffb
ffff
0003
ffff
0000
0000
0003
fffe
0000
fffa
0003
0003
